{
  "version": "1.0",
  "truncation": null,
  "padding": null,
  "added_tokens": [
    {
      "id": 120000,
      "content": "<｜hy_begin_of_sentence:opensource｜>",
      "single_word": false,
      "lstrip": false,
      "rstrip": false,
      "normalized": false,
      "special": true
    },
    {
      "id": 120001,
      "content": "<｜hy_end▁of▁sentence｜>",
      "single_word": false,
      "lstrip": false,
      "rstrip": false,
      "normalized": false,
      "special": true
    },
    {
      "id": 120002,
      "content": "<｜hy_pad:opensource｜>",
      "single_word": false,
      "lstrip": false,
      "rstrip": false,
      "normalized": false,
      "special": true
    },
    {
      "id": 120003,
      "content": "<｜hy_fim▁hole｜>",
      "single_word": false,
      "lstrip": false,
      "rstrip": false,
      "normalized": false,
      "special": true
    },
    {
      "id": 120004,
      "content": "<｜hy_fim▁begin｜>",
      "single_word": false,
      "lstrip": false,
      "rstrip": false,
      "normalized": false,
      "special": true
    },
    {
      "id": 120005,
      "content": "<｜hy_fim▁end｜>",
      "single_word": false,
      "lstrip": false,
      "rstrip": false,
      "normalized": false,
      "special": true
    },
    {
      "id": 120006,
      "content": "<｜hy_User:opensource｜>",
      "single_word": false,
      "lstrip": false,
      "rstrip": false,
      "normalized": false,
      "special": true
    },
    {
      "id": 120007,
      "content": "<｜hy_Assistant:opensource｜>",
      "single_word": false,
      "lstrip": false,
      "rstrip": false,
      "normalized": false,
      "special": true
    },
    {
      "id": 120008,
      "content": "<｜hy_EOT｜>",
      "single_word": false,
      "lstrip": false,
      "rstrip": false,
      "normalized": false,
      "special": true
    },
    {
      "id": 120009,
      "content": "<｜hy_place▁holder▁no▁11｜>",
      "single_word": false,
      "lstrip": false,
      "rstrip": false,
      "normalized": false,
      "special": true
    },
    {
      "id": 120010,
      "content": "<｜hy_place▁holder▁no▁12｜>",
      "single_word": false,
      "lstrip": false,
      "rstrip": false,
      "normalized": false,
      "special": true
    },
    {
      "id": 120011,
      "content": "<｜hy_place▁holder▁no▁13｜>",
      "single_word": false,
      "lstrip": false,
      "rstrip": false,
      "normalized": false,
      "special": true
    },
    {
      "id": 120012,
      "content": "<｜hy_place▁holder▁no▁14｜>",
      "single_word": false,
      "lstrip": false,
      "rstrip": false,
      "normalized": false,
      "special": true
    },
    {
      "id": 120013,
      "content": "<｜hy_place▁holder▁no▁15｜>",
      "single_word": false,
      "lstrip": false,
      "rstrip": false,
      "normalized": false,
      "special": true
    },
    {
      "id": 120014,
      "content": "<｜hy_place▁holder▁no▁16｜>",
      "single_word": false,
      "lstrip": false,
      "rstrip": false,
      "normalized": false,
      "special": true
    },
    {
      "id": 120015,
      "content": "<｜hy_place▁holder▁no▁17｜>",
      "single_word": false,
      "lstrip": false,
      "rstrip": false,
      "normalized": false,
      "special": true
    },
    {
      "id": 120016,
      "content": "<｜hy_place▁holder▁no▁18｜>",
      "single_word": false,
      "lstrip": false,
      "rstrip": false,
      "normalized": false,
      "special": true
    },
    {
      "id": 120017,
      "content": "<｜hy_place▁holder▁no▁19｜>",
      "single_word": false,
      "lstrip": false,
      "rstrip": false,
      "normalized": false,
      "special": true
    },
    {
      "id": 120018,
      "content": "<｜hy_place▁holder▁no▁0｜>",
      "single_word": false,
      "lstrip": false,
      "rstrip": false,
      "normalized": false,
      "special": true
    },
    {
      "id": 120019,
      "content": "<｜hy_place▁holder▁no▁1｜>",
      "single_word": false,
      "lstrip": false,
      "rstrip": false,
      "normalized": false,
      "special": true
    },
    {
      "id": 120020,
      "content": "<｜hy_place▁holder▁no▁2｜>",
      "single_word": false,
      "lstrip": false,
      "rstrip": false,
      "normalized": false,
      "special": true
    },
    {
      "id": 120021,
      "content": "<｜hy_place▁holder▁no▁3｜>",
      "single_word": false,
      "lstrip": false,
      "rstrip": false,
      "normalized": false,
      "special": true
    },
    {
      "id": 120022,
      "content": "<｜hy_place▁holder▁no▁4｜>",
      "single_word": false,
      "lstrip": false,
      "rstrip": false,
      "normalized": false,
      "special": true
    },
    {
      "id": 120023,
      "content": "<｜hy_place▁holder▁no▁5｜>",
      "single_word": false,
      "lstrip": false,
      "rstrip": false,
      "normalized": false,
      "special": true
    },
    {
      "id": 120024,
      "content": "<｜hy_place▁holder▁no▁6｜>",
      "single_word": false,
      "lstrip": false,
      "rstrip": false,
      "normalized": false,
      "special": true
    },
    {
      "id": 120025,
      "content": "<｜hy_eos:opensource｜>",
      "single_word": false,
      "lstrip": false,
      "rstrip": false,
      "normalized": false,
      "special": true
    },
    {
      "id": 120026,
      "content": "<｜hy_place▁holder▁no▁8｜>",
      "single_word": false,
      "lstrip": false,
      "rstrip": false,
      "normalized": false,
      "special": true
    },
    {
      "id": 120027,
      "content": "<｜hy_place▁holder▁no▁9｜>",
      "single_word": false,
      "lstrip": false,
      "rstrip": false,
      "normalized": false,
      "special": true
    },
    {
      "id": 120028,
      "content": "<｜hy_place▁holder▁no▁10｜>",
      "single_word": false,
      "lstrip": false,
      "rstrip": false,
      "normalized": false,
      "special": true
    },
    {
      "id": 120029,
      "content": "<think:opensource>",
      "single_word": false,
      "lstrip": false,
      "rstrip": false,
      "normalized": false,
      "special": false
    },
    {
      "id": 120030,
      "content": "</think:opensource>",
      "single_word": false,
      "lstrip": false,
      "rstrip": false,
      "normalized": false,
      "special": false
    },
    {
      "id": 120031,
      "content": "<answer>",
      "single_word": false,
      "lstrip": false,
      "rstrip": false,
      "normalized": false,
      "special": false
    },
    {
      "id": 120032,
      "content": "</answer>",
      "single_word": false,
      "lstrip": false,
      "rstrip": false,
      "normalized": false,
      "special": false
    },
    {
      "id": 120033,
      "content": "<tool_call:opensource>",
      "single_word": false,
      "lstrip": false,
      "rstrip": false,
      "normalized": false,
      "special": false
    },
    {
      "id": 120034,
      "content": "</tool_call:opensource>",
      "single_word": false,
      "lstrip": false,
      "rstrip": false,
      "normalized": false,
      "special": false
    },
    {
      "id": 120035,
      "content": "<tool_calls:opensource>",
      "single_word": false,
      "lstrip": false,
      "rstrip": false,
      "normalized": false,
      "special": false
    },
    {
      "id": 120036,
      "content": "</tool_calls:opensource>",
      "single_word": false,
      "lstrip": false,
      "rstrip": false,
      "normalized": false,
      "special": false
    },
    {
      "id": 120037,
      "content": "<tool_response:opensource>",
      "single_word": false,
      "lstrip": false,
      "rstrip": false,
      "normalized": false,
      "special": false
    },
    {
      "id": 120038,
      "content": "</tool_response:opensource>",
      "single_word": false,
      "lstrip": false,
      "rstrip": false,
      "normalized": false,
      "special": false
    },
    {
      "id": 120039,
      "content": "/think",
      "single_word": false,
      "lstrip": false,
      "rstrip": false,
      "normalized": false,
      "special": false
    },
    {
      "id": 120040,
      "content": "/no_think",
      "single_word": false,
      "lstrip": false,
      "rstrip": false,
      "normalized": false,
      "special": false
    },
    {
      "id": 120041,
      "content": "<tool_responses:opensource>",
      "single_word": false,
      "lstrip": false,
      "rstrip": false,
      "normalized": false,
      "special": false
    },
    {
      "id": 120042,
      "content": "</tool_responses:opensource>",
      "single_word": false,
      "lstrip": false,
      "rstrip": false,
      "normalized": false,
      "special": false
    },
    {
      "id": 120043,
      "content": "<tool_sep:opensource>",
      "single_word": false,
      "lstrip": false,
      "rstrip": false,
      "normalized": false,
      "special": false
    },
    {
      "id": 120044,
      "content": "<｜reasoning_mode:opensource｜>",
      "single_word": false,
      "lstrip": false,
      "rstrip": false,
      "normalized": false,
      "special": false
    },
    {
      "id": 120045,
      "content": "<｜tool▁calls▁begin:opensource｜>",
      "single_word": false,
      "lstrip": false,
      "rstrip": false,
      "normalized": false,
      "special": false
    },
    {
      "id": 120046,
      "content": "<｜tool▁calls▁end:opensource｜>",
      "single_word": false,
      "lstrip": false,
      "rstrip": false,
      "normalized": false,
      "special": false
    },
    {
      "id": 120047,
      "content": "<｜tool▁call▁begin:opensource｜>",
      "single_word": false,
      "lstrip": false,
      "rstrip": false,
      "normalized": false,
      "special": false
    },
    {
      "id": 120048,
      "content": "<｜tool▁call▁end:opensource｜>",
      "single_word": false,
      "lstrip": false,
      "rstrip": false,
      "normalized": false,
      "special": false
    },
    {
      "id": 120049,
      "content": "<｜tool▁sep:opensource｜>",
      "single_word": false,
      "lstrip": false,
      "rstrip": false,
      "normalized": false,
      "special": false
    },
    {
      "id": 120050,
      "content": "<｜tool▁output▁begin:opensource｜>",
      "single_word": false,
      "lstrip": false,
      "rstrip": false,
      "normalized": false,
      "special": false
    },
    {
      "id": 120051,
      "content": "<｜tool▁output▁end:opensource｜>",
      "single_word": false,
      "lstrip": false,
      "rstrip": false,
      "normalized": false,
      "special": false
    },
    {
      "id": 120052,
      "content": "<｜hy_place▁holder▁no▁34｜>",
      "single_word": false,
      "lstrip": false,
      "rstrip": false,
      "normalized": false,
      "special": true
    },
    {
      "id": 120053,
      "content": "<｜hy_place▁holder▁no▁35｜>",
      "single_word": false,
      "lstrip": false,
      "rstrip": false,
      "normalized": false,
      "special": true
    },
    {
      "id": 120054,
      "content": "<｜hy_place▁holder▁no▁36｜>",
      "single_word": false,
      "lstrip": false,
      "rstrip": false,
      "normalized": false,
      "special": true
    },
    {
      "id": 120055,
      "content": "<｜hy_place▁holder▁no▁37｜>",
      "single_word": false,
      "lstrip": false,
      "rstrip": false,
      "normalized": false,
      "special": true
    },
    {
      "id": 120056,
      "content": "<｜hy_place▁holder▁no▁38｜>",
      "single_word": false,
      "lstrip": false,
      "rstrip": false,
      "normalized": false,
      "special": true
    },
    {
      "id": 120057,
      "content": "<｜hy_place▁holder▁no▁39｜>",
      "single_word": false,
      "lstrip": false,
      "rstrip": false,
      "normalized": false,
      "special": true
    },
    {
      "id": 120058,
      "content": "<｜hy_place▁holder▁no▁40｜>",
      "single_word": false,
      "lstrip": false,
      "rstrip": false,
      "normalized": false,
      "special": true
    },
    {
      "id": 120059,
      "content": "<｜hy_place▁holder▁no▁41｜>",
      "single_word": false,
      "lstrip": false,
      "rstrip": false,
      "normalized": false,
      "special": true
    },
    {
      "id": 120060,
      "content": "<｜hy_place▁holder▁no▁42｜>",
      "single_word": false,
      "lstrip": false,
      "rstrip": false,
      "normalized": false,
      "special": true
    },
    {
      "id": 120061,
      "content": "<｜hy_place▁holder▁no▁43｜>",
      "single_word": false,
      "lstrip": false,
      "rstrip": false,
      "normalized": false,
      "special": true
    },
    {
      "id": 120062,
      "content": "<｜hy_place▁holder▁no▁44｜>",
      "single_word": false,
      "lstrip": false,
      "rstrip": false,
      "normalized": false,
      "special": false
    },
    {
      "id": 120063,
      "content": "<｜hy_place▁holder▁no▁45｜>",
      "single_word": false,
      "lstrip": false,
      "rstrip": false,
      "normalized": false,
      "special": false
    },
    {
      "id": 120064,
      "content": "<｜hy_place▁holder▁no▁46｜>",
      "single_word": false,
      "lstrip": false,
      "rstrip": false,
      "normalized": false,
      "special": false
    },
    {
      "id": 120065,
      "content": "<｜hy_place▁holder▁no▁47｜>",
      "single_word": false,
      "lstrip": false,
      "rstrip": false,
      "normalized": false,
      "special": false
    },
    {
      "id": 120066,
      "content": "<arg_key:opensource>",
      "single_word": false,
      "lstrip": false,
      "rstrip": false,
      "normalized": false,
      "special": false
    },
    {
      "id": 120067,
      "content": "</arg_key:opensource>",
      "single_word": false,
      "lstrip": false,
      "rstrip": false,
      "normalized": false,
      "special": false
    },
    {
      "id": 120068,
      "content": "<arg_value:opensource>",
      "single_word": false,
      "lstrip": false,
      "rstrip": false,
      "normalized": false,
      "special": false
    },
    {
      "id": 120069,
      "content": "</arg_value:opensource>",
      "single_word": false,
      "lstrip": false,
      "rstrip": false,
      "normalized": false,
      "special": false
    },
    {
      "id": 120070,
      "content": "<｜hy_place▁holder▁no▁52｜>",
      "single_word": false,
      "lstrip": false,
      "rstrip": false,
      "normalized": false,
      "special": false
    },
    {
      "id": 120071,
      "content": "<｜hy_place▁holder▁no▁53｜>",
      "single_word": false,
      "lstrip": false,
      "rstrip": false,
      "normalized": false,
      "special": true
    },
    {
      "id": 120072,
      "content": "<｜hy_place▁holder▁no▁54｜>",
      "single_word": false,
      "lstrip": false,
      "rstrip": false,
      "normalized": false,
      "special": true
    },
    {
      "id": 120073,
      "content": "<｜hy_place▁holder▁no▁55｜>",
      "single_word": false,
      "lstrip": false,
      "rstrip": false,
      "normalized": false,
      "special": true
    },
    {
      "id": 120074,
      "content": "<｜hy_place▁holder▁no▁56｜>",
      "single_word": false,
      "lstrip": false,
      "rstrip": false,
      "normalized": false,
      "special": true
    },
    {
      "id": 120075,
      "content": "<｜hy_place▁holder▁no▁57｜>",
      "single_word": false,
      "lstrip": false,
      "rstrip": false,
      "normalized": false,
      "special": true
    },
    {
      "id": 120076,
      "content": "<｜hy_place▁holder▁no▁58｜>",
      "single_word": false,
      "lstrip": false,
      "rstrip": false,
      "normalized": false,
      "special": true
    },
    {
      "id": 120077,
      "content": "<｜hy_place▁holder▁no▁59｜>",
      "single_word": false,
      "lstrip": false,
      "rstrip": false,
      "normalized": false,
      "special": true
    },
    {
      "id": 120078,
      "content": "<｜hy_place▁holder▁no▁60｜>",
      "single_word": false,
      "lstrip": false,
      "rstrip": false,
      "normalized": false,
      "special": true
    },
    {
      "id": 120079,
      "content": "<｜hy_place▁holder▁no▁61｜>",
      "single_word": false,
      "lstrip": false,
      "rstrip": false,
      "normalized": false,
      "special": true
    },
    {
      "id": 120080,
      "content": "<｜hy_place▁holder▁no▁62｜>",
      "single_word": false,
      "lstrip": false,
      "rstrip": false,
      "normalized": false,
      "special": true
    },
    {
      "id": 120081,
      "content": "<｜hy_place▁holder▁no▁63｜>",
      "single_word": false,
      "lstrip": false,
      "rstrip": false,
      "normalized": false,
      "special": true
    },
    {
      "id": 120082,
      "content": "<｜hy_place▁holder▁no▁64｜>",
      "single_word": false,
      "lstrip": false,
      "rstrip": false,
      "normalized": false,
      "special": true
    },
    {
      "id": 120083,
      "content": "<｜hy_place▁holder▁no▁65｜>",
      "single_word": false,
      "lstrip": false,
      "rstrip": false,
      "normalized": false,
      "special": true
    },
    {
      "id": 120084,
      "content": "<｜hy_place▁holder▁no▁66｜>",
      "single_word": false,
      "lstrip": false,
      "rstrip": false,
      "normalized": false,
      "special": true
    },
    {
      "id": 120085,
      "content": "<｜hy_place▁holder▁no▁67｜>",
      "single_word": false,
      "lstrip": false,
      "rstrip": false,
      "normalized": false,
      "special": true
    },
    {
      "id": 120086,
      "content": "<｜hy_place▁holder▁no▁68｜>",
      "single_word": false,
      "lstrip": false,
      "rstrip": false,
      "normalized": false,
      "special": true
    },
    {
      "id": 120087,
      "content": "<｜hy_place▁holder▁no▁69｜>",
      "single_word": false,
      "lstrip": false,
      "rstrip": false,
      "normalized": false,
      "special": true
    },
    {
      "id": 120088,
      "content": "<｜hy_place▁holder▁no▁70｜>",
      "single_word": false,
      "lstrip": false,
      "rstrip": false,
      "normalized": false,
      "special": true
    },
    {
      "id": 120089,
      "content": "<｜hy_place▁holder▁no▁71｜>",
      "single_word": false,
      "lstrip": false,
      "rstrip": false,
      "normalized": false,
      "special": true
    },
    {
      "id": 120090,
      "content": "<｜hy_place▁holder▁no▁72｜>",
      "single_word": false,
      "lstrip": false,
      "rstrip": false,
      "normalized": false,
      "special": true
    },
    {
      "id": 120091,
      "content": "<｜hy_place▁holder▁no▁73｜>",
      "single_word": false,
      "lstrip": false,
      "rstrip": false,
      "normalized": false,
      "special": true
    },
    {
      "id": 120092,
      "content": "<｜hy_place▁holder▁no▁74｜>",
      "single_word": false,
      "lstrip": false,
      "rstrip": false,
      "normalized": false,
      "special": true
    },
    {
      "id": 120093,
      "content": "<｜hy_place▁holder▁no▁75｜>",
      "single_word": false,
      "lstrip": false,
      "rstrip": false,
      "normalized": false,
      "special": true
    },
    {
      "id": 120094,
      "content": "<｜hy_place▁holder▁no▁76｜>",
      "single_word": false,
      "lstrip": false,
      "rstrip": false,
      "normalized": false,
      "special": true
    },
    {
      "id": 120095,
      "content": "<｜hy_place▁holder▁no▁77｜>",
      "single_word": false,
      "lstrip": false,
      "rstrip": false,
      "normalized": false,
      "special": true
    },
    {
      "id": 120096,
      "content": "<｜hy_place▁holder▁no▁78｜>",
      "single_word": false,
      "lstrip": false,
      "rstrip": false,
      "normalized": false,
      "special": true
    },
    {
      "id": 120097,
      "content": "<｜hy_place▁holder▁no▁79｜>",
      "single_word": false,
      "lstrip": false,
      "rstrip": false,
      "normalized": false,
      "special": true
    },
    {
      "id": 120098,
      "content": "<｜hy_place▁holder▁no▁80｜>",
      "single_word": false,
      "lstrip": false,
      "rstrip": false,
      "normalized": false,
      "special": true
    },
    {
      "id": 120099,
      "content": "<｜hy_place▁holder▁no▁81｜>",
      "single_word": false,
      "lstrip": false,
      "rstrip": false,
      "normalized": false,
      "special": true
    },
    {
      "id": 120100,
      "content": "<｜hy_place▁holder▁no▁82｜>",
      "single_word": false,
      "lstrip": false,
      "rstrip": false,
      "normalized": false,
      "special": true
    },
    {
      "id": 120101,
      "content": "<｜hy_place▁holder▁no▁83｜>",
      "single_word": false,
      "lstrip": false,
      "rstrip": false,
      "normalized": false,
      "special": true
    },
    {
      "id": 120102,
      "content": "<｜hy_place▁holder▁no▁84｜>",
      "single_word": false,
      "lstrip": false,
      "rstrip": false,
      "normalized": false,
      "special": true
    },
    {
      "id": 120103,
      "content": "<｜hy_place▁holder▁no▁85｜>",
      "single_word": false,
      "lstrip": false,
      "rstrip": false,
      "normalized": false,
      "special": true
    },
    {
      "id": 120104,
      "content": "<｜hy_place▁holder▁no▁86｜>",
      "single_word": false,
      "lstrip": false,
      "rstrip": false,
      "normalized": false,
      "special": true
    },
    {
      "id": 120105,
      "content": "<｜hy_place▁holder▁no▁87｜>",
      "single_word": false,
      "lstrip": false,
      "rstrip": false,
      "normalized": false,
      "special": true
    },
    {
      "id": 120106,
      "content": "<｜hy_place▁holder▁no▁88｜>",
      "single_word": false,
      "lstrip": false,
      "rstrip": false,
      "normalized": false,
      "special": true
    },
    {
      "id": 120107,
      "content": "<｜hy_place▁holder▁no▁89｜>",
      "single_word": false,
      "lstrip": false,
      "rstrip": false,
      "normalized": false,
      "special": true
    },
    {
      "id": 120108,
      "content": "<｜hy_place▁holder▁no▁90｜>",
      "single_word": false,
      "lstrip": false,
      "rstrip": false,
      "normalized": false,
      "special": true
    },
    {
      "id": 120109,
      "content": "<｜hy_place▁holder▁no▁91｜>",
      "single_word": false,
      "lstrip": false,
      "rstrip": false,
      "normalized": false,
      "special": true
    },
    {
      "id": 120110,
      "content": "<｜hy_place▁holder▁no▁92｜>",
      "single_word": false,
      "lstrip": false,
      "rstrip": false,
      "normalized": false,
      "special": true
    },
    {
      "id": 120111,
      "content": "<｜hy_place▁holder▁no▁93｜>",
      "single_word": false,
      "lstrip": false,
      "rstrip": false,
      "normalized": false,
      "special": true
    },
    {
      "id": 120112,
      "content": "<｜hy_place▁holder▁no▁94｜>",
      "single_word": false,
      "lstrip": false,
      "rstrip": false,
      "normalized": false,
      "special": true
    },
    {
      "id": 120113,
      "content": "<｜hy_place▁holder▁no▁95｜>",
      "single_word": false,
      "lstrip": false,
      "rstrip": false,
      "normalized": false,
      "special": true
    },
    {
      "id": 120114,
      "content": "<｜hy_place▁holder▁no▁96｜>",
      "single_word": false,
      "lstrip": false,
      "rstrip": false,
      "normalized": false,
      "special": true
    },
    {
      "id": 120115,
      "content": "<｜hy_place▁holder▁no▁97｜>",
      "single_word": false,
      "lstrip": false,
      "rstrip": false,
      "normalized": false,
      "special": true
    },
    {
      "id": 120116,
      "content": "<｜hy_place▁holder▁no▁98｜>",
      "single_word": false,
      "lstrip": false,
      "rstrip": false,
      "normalized": false,
      "special": true
    },
    {
      "id": 120117,
      "content": "<｜hy_place▁holder▁no▁99｜>",
      "single_word": false,
      "lstrip": false,
      "rstrip": false,
      "normalized": false,
      "special": true
    },
    {
      "id": 120118,
      "content": "<｜hy_place▁holder▁no▁100｜>",
      "single_word": false,
      "lstrip": false,
      "rstrip": false,
      "normalized": false,
      "special": true
    },
    {
      "id": 120119,
      "content": "<｜hy_place▁holder▁no▁101｜>",
      "single_word": false,
      "lstrip": false,
      "rstrip": false,
      "normalized": false,
      "special": true
    },
    {
      "id": 120120,
      "content": "<｜hy_place▁holder▁no▁102｜>",
      "single_word": false,
      "lstrip": false,
      "rstrip": false,
      "normalized": false,
      "special": true
    },
    {
      "id": 120121,
      "content": "<｜hy_place▁holder▁no▁103｜>",
      "single_word": false,
      "lstrip": false,
      "rstrip": false,
      "normalized": false,
      "special": true
    },
    {
      "id": 120122,
      "content": "<｜hy_place▁holder▁no▁104｜>",
      "single_word": false,
      "lstrip": false,
      "rstrip": false,
      "normalized": false,
      "special": true
    },
    {
      "id": 120123,
      "content": "<｜hy_place▁holder▁no▁105｜>",
      "single_word": false,
      "lstrip": false,
      "rstrip": false,
      "normalized": false,
      "special": true
    },
    {
      "id": 120124,
      "content": "<｜hy_place▁holder▁no▁106｜>",
      "single_word": false,
      "lstrip": false,
      "rstrip": false,
      "normalized": false,
      "special": true
    },
    {
      "id": 120125,
      "content": "<｜hy_place▁holder▁no▁107｜>",
      "single_word": false,
      "lstrip": false,
      "rstrip": false,
      "normalized": false,
      "special": true
    },
    {
      "id": 120126,
      "content": "<｜hy_place▁holder▁no▁108｜>",
      "single_word": false,
      "lstrip": false,
      "rstrip": false,
      "normalized": false,
      "special": true
    },
    {
      "id": 120127,
      "content": "<｜hy_place▁holder▁no▁109｜>",
      "single_word": false,
      "lstrip": false,
      "rstrip": false,
      "normalized": false,
      "special": true
    },
    {
      "id": 120128,
      "content": "<｜hy_place▁holder▁no▁110｜>",
      "single_word": false,
      "lstrip": false,
      "rstrip": false,
      "normalized": false,
      "special": true
    },
    {
      "id": 120129,
      "content": "<｜hy_place▁holder▁no▁111｜>",
      "single_word": false,
      "lstrip": false,
      "rstrip": false,
      "normalized": false,
      "special": true
    },
    {
      "id": 120130,
      "content": "<｜hy_place▁holder▁no▁112｜>",
      "single_word": false,
      "lstrip": false,
      "rstrip": false,
      "normalized": false,
      "special": true
    },
    {
      "id": 120131,
      "content": "<｜hy_place▁holder▁no▁113｜>",
      "single_word": false,
      "lstrip": false,
      "rstrip": false,
      "normalized": false,
      "special": true
    },
    {
      "id": 120132,
      "content": "<｜hy_place▁holder▁no▁114｜>",
      "single_word": false,
      "lstrip": false,
      "rstrip": false,
      "normalized": false,
      "special": true
    },
    {
      "id": 120133,
      "content": "<｜hy_place▁holder▁no▁115｜>",
      "single_word": false,
      "lstrip": false,
      "rstrip": false,
      "normalized": false,
      "special": true
    },
    {
      "id": 120134,
      "content": "<｜hy_place▁holder▁no▁116｜>",
      "single_word": false,
      "lstrip": false,
      "rstrip": false,
      "normalized": false,
      "special": true
    },
    {
      "id": 120135,
      "content": "<｜hy_place▁holder▁no▁117｜>",
      "single_word": false,
      "lstrip": false,
      "rstrip": false,
      "normalized": false,
      "special": true
    },
    {
      "id": 120136,
      "content": "<｜hy_place▁holder▁no▁118｜>",
      "single_word": false,
      "lstrip": false,
      "rstrip": false,
      "normalized": false,
      "special": true
    },
    {
      "id": 120137,
      "content": "<｜hy_place▁holder▁no▁119｜>",
      "single_word": false,
      "lstrip": false,
      "rstrip": false,
      "normalized": false,
      "special": true
    },
    {
      "id": 120138,
      "content": "<｜hy_place▁holder▁no▁120｜>",
      "single_word": false,
      "lstrip": false,
      "rstrip": false,
      "normalized": false,
      "special": true
    },
    {
      "id": 120139,
      "content": "<｜hy_place▁holder▁no▁121｜>",
      "single_word": false,
      "lstrip": false,
      "rstrip": false,
      "normalized": false,
      "special": true
    },
    {
      "id": 120140,
      "content": "<｜hy_place▁holder▁no▁122｜>",
      "single_word": false,
      "lstrip": false,
      "rstrip": false,
      "normalized": false,
      "special": true
    },
    {
      "id": 120141,
      "content": "<｜hy_place▁holder▁no▁123｜>",
      "single_word": false,
      "lstrip": false,
      "rstrip": false,
      "normalized": false,
      "special": true
    },
    {
      "id": 120142,
      "content": "<｜hy_place▁holder▁no▁124｜>",
      "single_word": false,
      "lstrip": false,
      "rstrip": false,
      "normalized": false,
      "special": true
    },
    {
      "id": 120143,
      "content": "<｜hy_place▁holder▁no▁125｜>",
      "single_word": false,
      "lstrip": false,
      "rstrip": false,
      "normalized": false,
      "special": true
    },
    {
      "id": 120144,
      "content": "<｜hy_place▁holder▁no▁126｜>",
      "single_word": false,
      "lstrip": false,
      "rstrip": false,
      "normalized": false,
      "special": true
    },
    {
      "id": 120145,
      "content": "<｜hy_place▁holder▁no▁127｜>",
      "single_word": false,
      "lstrip": false,
      "rstrip": false,
      "normalized": false,
      "special": true
    },
    {
      "id": 120146,
      "content": "<｜hy_place▁holder▁no▁128｜>",
      "single_word": false,
      "lstrip": false,
      "rstrip": false,
      "normalized": false,
      "special": true
    },
    {
      "id": 120147,
      "content": "<｜hy_place▁holder▁no▁129｜>",
      "single_word": false,
      "lstrip": false,
      "rstrip": false,
      "normalized": false,
      "special": true
    },
    {
      "id": 120148,
      "content": "<｜hy_place▁holder▁no▁130｜>",
      "single_word": false,
      "lstrip": false,
      "rstrip": false,
      "normalized": false,
      "special": true
    },
    {
      "id": 120149,
      "content": "<｜hy_place▁holder▁no▁131｜>",
      "single_word": false,
      "lstrip": false,
      "rstrip": false,
      "normalized": false,
      "special": true
    },
    {
      "id": 120150,
      "content": "<｜hy_place▁holder▁no▁132｜>",
      "single_word": false,
      "lstrip": false,
      "rstrip": false,
      "normalized": false,
      "special": true
    },
    {
      "id": 120151,
      "content": "<｜hy_place▁holder▁no▁133｜>",
      "single_word": false,
      "lstrip": false,
      "rstrip": false,
      "normalized": false,
      "special": true
    },
    {
      "id": 120152,
      "content": "<｜hy_place▁holder▁no▁134｜>",
      "single_word": false,
      "lstrip": false,
      "rstrip": false,
      "normalized": false,
      "special": true
    },
    {
      "id": 120153,
      "content": "<｜hy_place▁holder▁no▁135｜>",
      "single_word": false,
      "lstrip": false,
      "rstrip": false,
      "normalized": false,
      "special": true
    },
    {
      "id": 120154,
      "content": "<｜hy_place▁holder▁no▁136｜>",
      "single_word": false,
      "lstrip": false,
      "rstrip": false,
      "normalized": false,
      "special": true
    },
    {
      "id": 120155,
      "content": "<｜hy_place▁holder▁no▁137｜>",
      "single_word": false,
      "lstrip": false,
      "rstrip": false,
      "normalized": false,
      "special": true
    },
    {
      "id": 120156,
      "content": "<｜hy_place▁holder▁no▁138｜>",
      "single_word": false,
      "lstrip": false,
      "rstrip": false,
      "normalized": false,
      "special": true
    },
    {
      "id": 120157,
      "content": "<｜hy_place▁holder▁no▁139｜>",
      "single_word": false,
      "lstrip": false,
      "rstrip": false,
      "normalized": false,
      "special": true
    },
    {
      "id": 120158,
      "content": "<｜hy_place▁holder▁no▁140｜>",
      "single_word": false,
      "lstrip": false,
      "rstrip": false,
      "normalized": false,
      "special": true
    },
    {
      "id": 120159,
      "content": "<｜hy_place▁holder▁no▁141｜>",
      "single_word": false,
      "lstrip": false,
      "rstrip": false,
      "normalized": false,
      "special": true
    },
    {
      "id": 120160,
      "content": "<｜hy_place▁holder▁no▁142｜>",
      "single_word": false,
      "lstrip": false,
      "rstrip": false,
      "normalized": false,
      "special": true
    },
    {
      "id": 120161,
      "content": "<｜hy_place▁holder▁no▁143｜>",
      "single_word": false,
      "lstrip": false,
      "rstrip": false,
      "normalized": false,
      "special": true
    },
    {
      "id": 120162,
      "content": "<｜hy_place▁holder▁no▁144｜>",
      "single_word": false,
      "lstrip": false,
      "rstrip": false,
      "normalized": false,
      "special": true
    },
    {
      "id": 120163,
      "content": "<｜hy_place▁holder▁no▁145｜>",
      "single_word": false,
      "lstrip": false,
      "rstrip": false,
      "normalized": false,
      "special": true
    },
    {
      "id": 120164,
      "content": "<｜hy_place▁holder▁no▁146｜>",
      "single_word": false,
      "lstrip": false,
      "rstrip": false,
      "normalized": false,
      "special": true
    },
    {
      "id": 120165,
      "content": "<｜hy_place▁holder▁no▁147｜>",
      "single_word": false,
      "lstrip": false,
      "rstrip": false,
      "normalized": false,
      "special": true
    },
    {
      "id": 120166,
      "content": "<｜hy_place▁holder▁no▁148｜>",
      "single_word": false,
      "lstrip": false,
      "rstrip": false,
      "normalized": false,
      "special": true
    },
    {
      "id": 120167,
      "content": "<｜hy_place▁holder▁no▁149｜>",
      "single_word": false,
      "lstrip": false,
      "rstrip": false,
      "normalized": false,
      "special": true
    },
    {
      "id": 120168,
      "content": "<｜hy_place▁holder▁no▁150｜>",
      "single_word": false,
      "lstrip": false,
      "rstrip": false,
      "normalized": false,
      "special": true
    },
    {
      "id": 120169,
      "content": "<｜hy_place▁holder▁no▁151｜>",
      "single_word": false,
      "lstrip": false,
      "rstrip": false,
      "normalized": false,
      "special": true
    },
    {
      "id": 120170,
      "content": "<｜hy_place▁holder▁no▁152｜>",
      "single_word": false,
      "lstrip": false,
      "rstrip": false,
      "normalized": false,
      "special": true
    },
    {
      "id": 120171,
      "content": "<｜hy_place▁holder▁no▁153｜>",
      "single_word": false,
      "lstrip": false,
      "rstrip": false,
      "normalized": false,
      "special": true
    },
    {
      "id": 120172,
      "content": "<｜hy_place▁holder▁no▁154｜>",
      "single_word": false,
      "lstrip": false,
      "rstrip": false,
      "normalized": false,
      "special": true
    },
    {
      "id": 120173,
      "content": "<｜hy_place▁holder▁no▁155｜>",
      "single_word": false,
      "lstrip": false,
      "rstrip": false,
      "normalized": false,
      "special": true
    },
    {
      "id": 120174,
      "content": "<｜hy_place▁holder▁no▁156｜>",
      "single_word": false,
      "lstrip": false,
      "rstrip": false,
      "normalized": false,
      "special": true
    },
    {
      "id": 120175,
      "content": "<｜hy_place▁holder▁no▁157｜>",
      "single_word": false,
      "lstrip": false,
      "rstrip": false,
      "normalized": false,
      "special": true
    },
    {
      "id": 120176,
      "content": "<｜hy_place▁holder▁no▁158｜>",
      "single_word": false,
      "lstrip": false,
      "rstrip": false,
      "normalized": false,
      "special": true
    },
    {
      "id": 120177,
      "content": "<｜hy_place▁holder▁no▁159｜>",
      "single_word": false,
      "lstrip": false,
      "rstrip": false,
      "normalized": false,
      "special": true
    },
    {
      "id": 120178,
      "content": "<｜hy_place▁holder▁no▁160｜>",
      "single_word": false,
      "lstrip": false,
      "rstrip": false,
      "normalized": false,
      "special": true
    },
    {
      "id": 120179,
      "content": "<｜hy_place▁holder▁no▁161｜>",
      "single_word": false,
      "lstrip": false,
      "rstrip": false,
      "normalized": false,
      "special": true
    },
    {
      "id": 120180,
      "content": "<｜hy_place▁holder▁no▁162｜>",
      "single_word": false,
      "lstrip": false,
      "rstrip": false,
      "normalized": false,
      "special": true
    },
    {
      "id": 120181,
      "content": "<｜hy_place▁holder▁no▁163｜>",
      "single_word": false,
      "lstrip": false,
      "rstrip": false,
      "normalized": false,
      "special": true
    },
    {
      "id": 120182,
      "content": "<｜hy_place▁holder▁no▁164｜>",
      "single_word": false,
      "lstrip": false,
      "rstrip": false,
      "normalized": false,
      "special": true
    },
    {
      "id": 120183,
      "content": "<｜hy_place▁holder▁no▁165｜>",
      "single_word": false,
      "lstrip": false,
      "rstrip": false,
      "normalized": false,
      "special": true
    },
    {
      "id": 120184,
      "content": "<｜hy_place▁holder▁no▁166｜>",
      "single_word": false,
      "lstrip": false,
      "rstrip": false,
      "normalized": false,
      "special": true
    },
    {
      "id": 120185,
      "content": "<｜hy_place▁holder▁no▁167｜>",
      "single_word": false,
      "lstrip": false,
      "rstrip": false,
      "normalized": false,
      "special": true
    },
    {
      "id": 120186,
      "content": "<｜hy_place▁holder▁no▁168｜>",
      "single_word": false,
      "lstrip": false,
      "rstrip": false,
      "normalized": false,
      "special": true
    },
    {
      "id": 120187,
      "content": "<｜hy_place▁holder▁no▁169｜>",
      "single_word": false,
      "lstrip": false,
      "rstrip": false,
      "normalized": false,
      "special": true
    },
    {
      "id": 120188,
      "content": "<｜hy_place▁holder▁no▁170｜>",
      "single_word": false,
      "lstrip": false,
      "rstrip": false,
      "normalized": false,
      "special": true
    },
    {
      "id": 120189,
      "content": "<｜hy_place▁holder▁no▁171｜>",
      "single_word": false,
      "lstrip": false,
      "rstrip": false,
      "normalized": false,
      "special": true
    },
    {
      "id": 120190,
      "content": "<｜hy_place▁holder▁no▁172｜>",
      "single_word": false,
      "lstrip": false,
      "rstrip": false,
      "normalized": false,
      "special": true
    },
    {
      "id": 120191,
      "content": "<｜hy_place▁holder▁no▁173｜>",
      "single_word": false,
      "lstrip": false,
      "rstrip": false,
      "normalized": false,
      "special": true
    },
    {
      "id": 120192,
      "content": "<｜hy_place▁holder▁no▁174｜>",
      "single_word": false,
      "lstrip": false,
      "rstrip": false,
      "normalized": false,
      "special": true
    },
    {
      "id": 120193,
      "content": "<｜hy_place▁holder▁no▁175｜>",
      "single_word": false,
      "lstrip": false,
      "rstrip": false,
      "normalized": false,
      "special": true
    },
    {
      "id": 120194,
      "content": "<｜hy_place▁holder▁no▁176｜>",
      "single_word": false,
      "lstrip": false,
      "rstrip": false,
      "normalized": false,
      "special": true
    },
    {
      "id": 120195,
      "content": "<｜hy_place▁holder▁no▁177｜>",
      "single_word": false,
      "lstrip": false,
      "rstrip": false,
      "normalized": false,
      "special": true
    },
    {
      "id": 120196,
      "content": "<｜hy_place▁holder▁no▁178｜>",
      "single_word": false,
      "lstrip": false,
      "rstrip": false,
      "normalized": false,
      "special": true
    },
    {
      "id": 120197,
      "content": "<｜hy_place▁holder▁no▁179｜>",
      "single_word": false,
      "lstrip": false,
      "rstrip": false,
      "normalized": false,
      "special": true
    },
    {
      "id": 120198,
      "content": "<｜hy_place▁holder▁no▁180｜>",
      "single_word": false,
      "lstrip": false,
      "rstrip": false,
      "normalized": false,
      "special": true
    },
    {
      "id": 120199,
      "content": "<｜hy_place▁holder▁no▁181｜>",
      "single_word": false,
      "lstrip": false,
      "rstrip": false,
      "normalized": false,
      "special": true
    },
    {
      "id": 120200,
      "content": "<｜hy_place▁holder▁no▁182｜>",
      "single_word": false,
      "lstrip": false,
      "rstrip": false,
      "normalized": false,
      "special": true
    },
    {
      "id": 120201,
      "content": "<｜hy_place▁holder▁no▁183｜>",
      "single_word": false,
      "lstrip": false,
      "rstrip": false,
      "normalized": false,
      "special": true
    },
    {
      "id": 120202,
      "content": "<｜hy_place▁holder▁no▁184｜>",
      "single_word": false,
      "lstrip": false,
      "rstrip": false,
      "normalized": false,
      "special": true
    },
    {
      "id": 120203,
      "content": "<｜hy_place▁holder▁no▁185｜>",
      "single_word": false,
      "lstrip": false,
      "rstrip": false,
      "normalized": false,
      "special": true
    },
    {
      "id": 120204,
      "content": "<｜hy_place▁holder▁no▁186｜>",
      "single_word": false,
      "lstrip": false,
      "rstrip": false,
      "normalized": false,
      "special": true
    },
    {
      "id": 120205,
      "content": "<｜hy_place▁holder▁no▁187｜>",
      "single_word": false,
      "lstrip": false,
      "rstrip": false,
      "normalized": false,
      "special": true
    },
    {
      "id": 120206,
      "content": "<｜hy_place▁holder▁no▁188｜>",
      "single_word": false,
      "lstrip": false,
      "rstrip": false,
      "normalized": false,
      "special": true
    },
    {
      "id": 120207,
      "content": "<｜hy_place▁holder▁no▁189｜>",
      "single_word": false,
      "lstrip": false,
      "rstrip": false,
      "normalized": false,
      "special": true
    },
    {
      "id": 120208,
      "content": "<｜hy_place▁holder▁no▁190｜>",
      "single_word": false,
      "lstrip": false,
      "rstrip": false,
      "normalized": false,
      "special": true
    },
    {
      "id": 120209,
      "content": "<｜hy_place▁holder▁no▁191｜>",
      "single_word": false,
      "lstrip": false,
      "rstrip": false,
      "normalized": false,
      "special": true
    },
    {
      "id": 120210,
      "content": "<｜hy_place▁holder▁no▁192｜>",
      "single_word": false,
      "lstrip": false,
      "rstrip": false,
      "normalized": false,
      "special": true
    },
    {
      "id": 120211,
      "content": "<｜hy_place▁holder▁no▁193｜>",
      "single_word": false,
      "lstrip": false,
      "rstrip": false,
      "normalized": false,
      "special": true
    },
    {
      "id": 120212,
      "content": "<｜hy_place▁holder▁no▁194｜>",
      "single_word": false,
      "lstrip": false,
      "rstrip": false,
      "normalized": false,
      "special": true
    },
    {
      "id": 120213,
      "content": "<｜hy_place▁holder▁no▁195｜>",
      "single_word": false,
      "lstrip": false,
      "rstrip": false,
      "normalized": false,
      "special": true
    },
    {
      "id": 120214,
      "content": "<｜hy_place▁holder▁no▁196｜>",
      "single_word": false,
      "lstrip": false,
      "rstrip": false,
      "normalized": false,
      "special": true
    },
    {
      "id": 120215,
      "content": "<｜hy_place▁holder▁no▁197｜>",
      "single_word": false,
      "lstrip": false,
      "rstrip": false,
      "normalized": false,
      "special": true
    },
    {
      "id": 120216,
      "content": "<｜hy_place▁holder▁no▁198｜>",
      "single_word": false,
      "lstrip": false,
      "rstrip": false,
      "normalized": false,
      "special": true
    },
    {
      "id": 120217,
      "content": "<｜hy_place▁holder▁no▁199｜>",
      "single_word": false,
      "lstrip": false,
      "rstrip": false,
      "normalized": false,
      "special": true
    },
    {
      "id": 120218,
      "content": "<｜hy_place▁holder▁no▁200｜>",
      "single_word": false,
      "lstrip": false,
      "rstrip": false,
      "normalized": false,
      "special": true
    },
    {
      "id": 120219,
      "content": "<｜hy_place▁holder▁no▁201｜>",
      "single_word": false,
      "lstrip": false,
      "rstrip": false,
      "normalized": false,
      "special": true
    },
    {
      "id": 120220,
      "content": "<｜hy_place▁holder▁no▁202｜>",
      "single_word": false,
      "lstrip": false,
      "rstrip": false,
      "normalized": false,
      "special": true
    },
    {
      "id": 120221,
      "content": "<｜hy_place▁holder▁no▁203｜>",
      "single_word": false,
      "lstrip": false,
      "rstrip": false,
      "normalized": false,
      "special": true
    },
    {
      "id": 120222,
      "content": "<｜hy_place▁holder▁no▁204｜>",
      "single_word": false,
      "lstrip": false,
      "rstrip": false,
      "normalized": false,
      "special": true
    },
    {
      "id": 120223,
      "content": "<｜hy_place▁holder▁no▁205｜>",
      "single_word": false,
      "lstrip": false,
      "rstrip": false,
      "normalized": false,
      "special": true
    },
    {
      "id": 120224,
      "content": "<｜hy_place▁holder▁no▁206｜>",
      "single_word": false,
      "lstrip": false,
      "rstrip": false,
      "normalized": false,
      "special": true
    },
    {
      "id": 120225,
      "content": "<｜hy_place▁holder▁no▁207｜>",
      "single_word": false,
      "lstrip": false,
      "rstrip": false,
      "normalized": false,
      "special": true
    },
    {
      "id": 120226,
      "content": "<｜hy_place▁holder▁no▁208｜>",
      "single_word": false,
      "lstrip": false,
      "rstrip": false,
      "normalized": false,
      "special": true
    },
    {
      "id": 120227,
      "content": "<｜hy_place▁holder▁no▁209｜>",
      "single_word": false,
      "lstrip": false,
      "rstrip": false,
      "normalized": false,
      "special": true
    },
    {
      "id": 120228,
      "content": "<｜hy_place▁holder▁no▁210｜>",
      "single_word": false,
      "lstrip": false,
      "rstrip": false,
      "normalized": false,
      "special": true
    },
    {
      "id": 120229,
      "content": "<｜hy_place▁holder▁no▁211｜>",
      "single_word": false,
      "lstrip": false,
      "rstrip": false,
      "normalized": false,
      "special": true
    },
    {
      "id": 120230,
      "content": "<｜hy_place▁holder▁no▁212｜>",
      "single_word": false,
      "lstrip": false,
      "rstrip": false,
      "normalized": false,
      "special": true
    },
    {
      "id": 120231,
      "content": "<｜hy_place▁holder▁no▁213｜>",
      "single_word": false,
      "lstrip": false,
      "rstrip": false,
      "normalized": false,
      "special": true
    },
    {
      "id": 120232,
      "content": "<｜hy_place▁holder▁no▁214｜>",
      "single_word": false,
      "lstrip": false,
      "rstrip": false,
      "normalized": false,
      "special": true
    },
    {
      "id": 120233,
      "content": "<｜hy_place▁holder▁no▁215｜>",
      "single_word": false,
      "lstrip": false,
      "rstrip": false,
      "normalized": false,
      "special": true
    },
    {
      "id": 120234,
      "content": "<｜hy_place▁holder▁no▁216｜>",
      "single_word": false,
      "lstrip": false,
      "rstrip": false,
      "normalized": false,
      "special": true
    },
    {
      "id": 120235,
      "content": "<｜hy_place▁holder▁no▁217｜>",
      "single_word": false,
      "lstrip": false,
      "rstrip": false,
      "normalized": false,
      "special": true
    },
    {
      "id": 120236,
      "content": "<｜hy_place▁holder▁no▁218｜>",
      "single_word": false,
      "lstrip": false,
      "rstrip": false,
      "normalized": false,
      "special": true
    },
    {
      "id": 120237,
      "content": "<｜hy_place▁holder▁no▁219｜>",
      "single_word": false,
      "lstrip": false,
      "rstrip": false,
      "normalized": false,
      "special": true
    },
    {
      "id": 120238,
      "content": "<｜hy_place▁holder▁no▁220｜>",
      "single_word": false,
      "lstrip": false,
      "rstrip": false,
      "normalized": false,
      "special": true
    },
    {
      "id": 120239,
      "content": "<｜hy_place▁holder▁no▁221｜>",
      "single_word": false,
      "lstrip": false,
      "rstrip": false,
      "normalized": false,
      "special": true
    },
    {
      "id": 120240,
      "content": "<｜hy_place▁holder▁no▁222｜>",
      "single_word": false,
      "lstrip": false,
      "rstrip": false,
      "normalized": false,
      "special": true
    },
    {
      "id": 120241,
      "content": "<｜hy_place▁holder▁no▁223｜>",
      "single_word": false,
      "lstrip": false,
      "rstrip": false,
      "normalized": false,
      "special": true
    },
    {
      "id": 120242,
      "content": "<｜hy_place▁holder▁no▁224｜>",
      "single_word": false,
      "lstrip": false,
      "rstrip": false,
      "normalized": false,
      "special": true
    },
    {
      "id": 120243,
      "content": "<｜hy_place▁holder▁no▁225｜>",
      "single_word": false,
      "lstrip": false,
      "rstrip": false,
      "normalized": false,
      "special": true
    },
    {
      "id": 120244,
      "content": "<｜hy_place▁holder▁no▁226｜>",
      "single_word": false,
      "lstrip": false,
      "rstrip": false,
      "normalized": false,
      "special": true
    },
    {
      "id": 120245,
      "content": "<｜hy_place▁holder▁no▁227｜>",
      "single_word": false,
      "lstrip": false,
      "rstrip": false,
      "normalized": false,
      "special": true
    },
    {
      "id": 120246,
      "content": "<｜hy_place▁holder▁no▁228｜>",
      "single_word": false,
      "lstrip": false,
      "rstrip": false,
      "normalized": false,
      "special": true
    },
    {
      "id": 120247,
      "content": "<｜hy_place▁holder▁no▁229｜>",
      "single_word": false,
      "lstrip": false,
      "rstrip": false,
      "normalized": false,
      "special": true
    },
    {
      "id": 120248,
      "content": "<｜hy_place▁holder▁no▁230｜>",
      "single_word": false,
      "lstrip": false,
      "rstrip": false,
      "normalized": false,
      "special": true
    },
    {
      "id": 120249,
      "content": "<｜hy_place▁holder▁no▁231｜>",
      "single_word": false,
      "lstrip": false,
      "rstrip": false,
      "normalized": false,
      "special": true
    },
    {
      "id": 120250,
      "content": "<｜hy_place▁holder▁no▁232｜>",
      "single_word": false,
      "lstrip": false,
      "rstrip": false,
      "normalized": false,
      "special": true
    },
    {
      "id": 120251,
      "content": "<｜hy_place▁holder▁no▁233｜>",
      "single_word": false,
      "lstrip": false,
      "rstrip": false,
      "normalized": false,
      "special": true
    },
    {
      "id": 120252,
      "content": "<｜hy_place▁holder▁no▁234｜>",
      "single_word": false,
      "lstrip": false,
      "rstrip": false,
      "normalized": false,
      "special": true
    },
    {
      "id": 120253,
      "content": "<｜hy_place▁holder▁no▁235｜>",
      "single_word": false,
      "lstrip": false,
      "rstrip": false,
      "normalized": false,
      "special": true
    },
    {
      "id": 120254,
      "content": "<｜hy_place▁holder▁no▁236｜>",
      "single_word": false,
      "lstrip": false,
      "rstrip": false,
      "normalized": false,
      "special": true
    },
    {
      "id": 120255,
      "content": "<｜hy_place▁holder▁no▁237｜>",
      "single_word": false,
      "lstrip": false,
      "rstrip": false,
      "normalized": false,
      "special": true
    },
    {
      "id": 120256,
      "content": "<｜hy_place▁holder▁no▁238｜>",
      "single_word": false,
      "lstrip": false,
      "rstrip": false,
      "normalized": false,
      "special": true
    },
    {
      "id": 120257,
      "content": "<｜hy_place▁holder▁no▁239｜>",
      "single_word": false,
      "lstrip": false,
      "rstrip": false,
      "normalized": false,
      "special": true
    },
    {
      "id": 120258,
      "content": "<｜hy_place▁holder▁no▁240｜>",
      "single_word": false,
      "lstrip": false,
      "rstrip": false,
      "normalized": false,
      "special": true
    },
    {
      "id": 120259,
      "content": "<｜hy_place▁holder▁no▁241｜>",
      "single_word": false,
      "lstrip": false,
      "rstrip": false,
      "normalized": false,
      "special": true
    },
    {
      "id": 120260,
      "content": "<｜hy_place▁holder▁no▁242｜>",
      "single_word": false,
      "lstrip": false,
      "rstrip": false,
      "normalized": false,
      "special": true
    },
    {
      "id": 120261,
      "content": "<｜hy_place▁holder▁no▁243｜>",
      "single_word": false,
      "lstrip": false,
      "rstrip": false,
      "normalized": false,
      "special": true
    },
    {
      "id": 120262,
      "content": "<｜hy_place▁holder▁no▁244｜>",
      "single_word": false,
      "lstrip": false,
      "rstrip": false,
      "normalized": false,
      "special": true
    },
    {
      "id": 120263,
      "content": "<｜hy_place▁holder▁no▁245｜>",
      "single_word": false,
      "lstrip": false,
      "rstrip": false,
      "normalized": false,
      "special": true
    },
    {
      "id": 120264,
      "content": "<｜hy_place▁holder▁no▁246｜>",
      "single_word": false,
      "lstrip": false,
      "rstrip": false,
      "normalized": false,
      "special": true
    },
    {
      "id": 120265,
      "content": "<｜hy_place▁holder▁no▁247｜>",
      "single_word": false,
      "lstrip": false,
      "rstrip": false,
      "normalized": false,
      "special": true
    },
    {
      "id": 120266,
      "content": "<｜hy_place▁holder▁no▁248｜>",
      "single_word": false,
      "lstrip": false,
      "rstrip": false,
      "normalized": false,
      "special": true
    },
    {
      "id": 120267,
      "content": "<｜hy_place▁holder▁no▁249｜>",
      "single_word": false,
      "lstrip": false,
      "rstrip": false,
      "normalized": false,
      "special": true
    },
    {
      "id": 120268,
      "content": "<｜hy_place▁holder▁no▁250｜>",
      "single_word": false,
      "lstrip": false,
      "rstrip": false,
      "normalized": false,
      "special": true
    },
    {
      "id": 120269,
      "content": "<｜hy_place▁holder▁no▁251｜>",
      "single_word": false,
      "lstrip": false,
      "rstrip": false,
      "normalized": false,
      "special": true
    },
    {
      "id": 120270,
      "content": "<｜hy_place▁holder▁no▁252｜>",
      "single_word": false,
      "lstrip": false,
      "rstrip": false,
      "normalized": false,
      "special": true
    },
    {
      "id": 120271,
      "content": "<｜hy_place▁holder▁no▁253｜>",
      "single_word": false,
      "lstrip": false,
      "rstrip": false,
      "normalized": false,
      "special": true
    },
    {
      "id": 120272,
      "content": "<｜hy_place▁holder▁no▁254｜>",
      "single_word": false,
      "lstrip": false,
      "rstrip": false,
      "normalized": false,
      "special": true
    },
    {
      "id": 120273,
      "content": "<｜hy_place▁holder▁no▁255｜>",
      "single_word": false,
      "lstrip": false,
      "rstrip": false,
      "normalized": false,
      "special": true
    },
    {
      "id": 120274,
      "content": "<｜hy_place▁holder▁no▁256｜>",
      "single_word": false,
      "lstrip": false,
      "rstrip": false,
      "normalized": false,
      "special": true
    },
    {
      "id": 120275,
      "content": "<｜hy_place▁holder▁no▁257｜>",
      "single_word": false,
      "lstrip": false,
      "rstrip": false,
      "normalized": false,
      "special": true
    },
    {
      "id": 120276,
      "content": "<｜hy_place▁holder▁no▁258｜>",
      "single_word": false,
      "lstrip": false,
      "rstrip": false,
      "normalized": false,
      "special": true
    },
    {
      "id": 120277,
      "content": "<｜hy_place▁holder▁no▁259｜>",
      "single_word": false,
      "lstrip": false,
      "rstrip": false,
      "normalized": false,
      "special": true
    },
    {
      "id": 120278,
      "content": "<｜hy_place▁holder▁no▁260｜>",
      "single_word": false,
      "lstrip": false,
      "rstrip": false,
      "normalized": false,
      "special": true
    },
    {
      "id": 120279,
      "content": "<｜hy_place▁holder▁no▁261｜>",
      "single_word": false,
      "lstrip": false,
      "rstrip": false,
      "normalized": false,
      "special": true
    },
    {
      "id": 120280,
      "content": "<｜hy_place▁holder▁no▁262｜>",
      "single_word": false,
      "lstrip": false,
      "rstrip": false,
      "normalized": false,
      "special": true
    },
    {
      "id": 120281,
      "content": "<｜hy_place▁holder▁no▁263｜>",
      "single_word": false,
      "lstrip": false,
      "rstrip": false,
      "normalized": false,
      "special": true
    },
    {
      "id": 120282,
      "content": "<｜hy_place▁holder▁no▁264｜>",
      "single_word": false,
      "lstrip": false,
      "rstrip": false,
      "normalized": false,
      "special": true
    },
    {
      "id": 120283,
      "content": "<｜hy_place▁holder▁no▁265｜>",
      "single_word": false,
      "lstrip": false,
      "rstrip": false,
      "normalized": false,
      "special": true
    },
    {
      "id": 120284,
      "content": "<｜hy_place▁holder▁no▁266｜>",
      "single_word": false,
      "lstrip": false,
      "rstrip": false,
      "normalized": false,
      "special": true
    },
    {
      "id": 120285,
      "content": "<｜hy_place▁holder▁no▁267｜>",
      "single_word": false,
      "lstrip": false,
      "rstrip": false,
      "normalized": false,
      "special": true
    },
    {
      "id": 120286,
      "content": "<｜hy_place▁holder▁no▁268｜>",
      "single_word": false,
      "lstrip": false,
      "rstrip": false,
      "normalized": false,
      "special": true
    },
    {
      "id": 120287,
      "content": "<｜hy_place▁holder▁no▁269｜>",
      "single_word": false,
      "lstrip": false,
      "rstrip": false,
      "normalized": false,
      "special": true
    },
    {
      "id": 120288,
      "content": "<｜hy_place▁holder▁no▁270｜>",
      "single_word": false,
      "lstrip": false,
      "rstrip": false,
      "normalized": false,
      "special": true
    },
    {
      "id": 120289,
      "content": "<｜hy_place▁holder▁no▁271｜>",
      "single_word": false,
      "lstrip": false,
      "rstrip": false,
      "normalized": false,
      "special": true
    },
    {
      "id": 120290,
      "content": "<｜hy_place▁holder▁no▁272｜>",
      "single_word": false,
      "lstrip": false,
      "rstrip": false,
      "normalized": false,
      "special": true
    },
    {
      "id": 120291,
      "content": "<｜hy_place▁holder▁no▁273｜>",
      "single_word": false,
      "lstrip": false,
      "rstrip": false,
      "normalized": false,
      "special": true
    },
    {
      "id": 120292,
      "content": "<｜hy_place▁holder▁no▁274｜>",
      "single_word": false,
      "lstrip": false,
      "rstrip": false,
      "normalized": false,
      "special": true
    },
    {
      "id": 120293,
      "content": "<｜hy_place▁holder▁no▁275｜>",
      "single_word": false,
      "lstrip": false,
      "rstrip": false,
      "normalized": false,
      "special": true
    },
    {
      "id": 120294,
      "content": "<｜hy_place▁holder▁no▁276｜>",
      "single_word": false,
      "lstrip": false,
      "rstrip": false,
      "normalized": false,
      "special": true
    },
    {
      "id": 120295,
      "content": "<｜hy_place▁holder▁no▁277｜>",
      "single_word": false,
      "lstrip": false,
      "rstrip": false,
      "normalized": false,
      "special": true
    },
    {
      "id": 120296,
      "content": "<｜hy_place▁holder▁no▁278｜>",
      "single_word": false,
      "lstrip": false,
      "rstrip": false,
      "normalized": false,
      "special": true
    },
    {
      "id": 120297,
      "content": "<｜hy_place▁holder▁no▁279｜>",
      "single_word": false,
      "lstrip": false,
      "rstrip": false,
      "normalized": false,
      "special": true
    },
    {
      "id": 120298,
      "content": "<｜hy_place▁holder▁no▁280｜>",
      "single_word": false,
      "lstrip": false,
      "rstrip": false,
      "normalized": false,
      "special": true
    },
    {
      "id": 120299,
      "content": "<｜hy_place▁holder▁no▁281｜>",
      "single_word": false,
      "lstrip": false,
      "rstrip": false,
      "normalized": false,
      "special": true
    },
    {
      "id": 120300,
      "content": "<｜hy_place▁holder▁no▁282｜>",
      "single_word": false,
      "lstrip": false,
      "rstrip": false,
      "normalized": false,
      "special": true
    },
    {
      "id": 120301,
      "content": "<｜hy_place▁holder▁no▁283｜>",
      "single_word": false,
      "lstrip": false,
      "rstrip": false,
      "normalized": false,
      "special": true
    },
    {
      "id": 120302,
      "content": "<｜hy_place▁holder▁no▁284｜>",
      "single_word": false,
      "lstrip": false,
      "rstrip": false,
      "normalized": false,
      "special": true
    },
    {
      "id": 120303,
      "content": "<｜hy_place▁holder▁no▁285｜>",
      "single_word": false,
      "lstrip": false,
      "rstrip": false,
      "normalized": false,
      "special": true
    },
    {
      "id": 120304,
      "content": "<｜hy_place▁holder▁no▁286｜>",
      "single_word": false,
      "lstrip": false,
      "rstrip": false,
      "normalized": false,
      "special": true
    },
    {
      "id": 120305,
      "content": "<｜hy_place▁holder▁no▁287｜>",
      "single_word": false,
      "lstrip": false,
      "rstrip": false,
      "normalized": false,
      "special": true
    },
    {
      "id": 120306,
      "content": "<｜hy_place▁holder▁no▁288｜>",
      "single_word": false,
      "lstrip": false,
      "rstrip": false,
      "normalized": false,
      "special": true
    },
    {
      "id": 120307,
      "content": "<｜hy_place▁holder▁no▁289｜>",
      "single_word": false,
      "lstrip": false,
      "rstrip": false,
      "normalized": false,
      "special": true
    },
    {
      "id": 120308,
      "content": "<｜hy_place▁holder▁no▁290｜>",
      "single_word": false,
      "lstrip": false,
      "rstrip": false,
      "normalized": false,
      "special": true
    },
    {
      "id": 120309,
      "content": "<｜hy_place▁holder▁no▁291｜>",
      "single_word": false,
      "lstrip": false,
      "rstrip": false,
      "normalized": false,
      "special": true
    },
    {
      "id": 120310,
      "content": "<｜hy_place▁holder▁no▁292｜>",
      "single_word": false,
      "lstrip": false,
      "rstrip": false,
      "normalized": false,
      "special": true
    },
    {
      "id": 120311,
      "content": "<｜hy_place▁holder▁no▁293｜>",
      "single_word": false,
      "lstrip": false,
      "rstrip": false,
      "normalized": false,
      "special": true
    },
    {
      "id": 120312,
      "content": "<｜hy_place▁holder▁no▁294｜>",
      "single_word": false,
      "lstrip": false,
      "rstrip": false,
      "normalized": false,
      "special": true
    },
    {
      "id": 120313,
      "content": "<｜hy_place▁holder▁no▁295｜>",
      "single_word": false,
      "lstrip": false,
      "rstrip": false,
      "normalized": false,
      "special": true
    },
    {
      "id": 120314,
      "content": "<｜hy_place▁holder▁no▁296｜>",
      "single_word": false,
      "lstrip": false,
      "rstrip": false,
      "normalized": false,
      "special": true
    },
    {
      "id": 120315,
      "content": "<｜hy_place▁holder▁no▁297｜>",
      "single_word": false,
      "lstrip": false,
      "rstrip": false,
      "normalized": false,
      "special": true
    },
    {
      "id": 120316,
      "content": "<｜hy_place▁holder▁no▁298｜>",
      "single_word": false,
      "lstrip": false,
      "rstrip": false,
      "normalized": false,
      "special": true
    },
    {
      "id": 120317,
      "content": "<｜hy_place▁holder▁no▁299｜>",
      "single_word": false,
      "lstrip": false,
      "rstrip": false,
      "normalized": false,
      "special": true
    },
    {
      "id": 120318,
      "content": "<｜hy_place▁holder▁no▁300｜>",
      "single_word": false,
      "lstrip": false,
      "rstrip": false,
      "normalized": false,
      "special": true
    },
    {
      "id": 120319,
      "content": "<｜hy_place▁holder▁no▁301｜>",
      "single_word": false,
      "lstrip": false,
      "rstrip": false,
      "normalized": false,
      "special": true
    },
    {
      "id": 120320,
      "content": "<｜hy_place▁holder▁no▁302｜>",
      "single_word": false,
      "lstrip": false,
      "rstrip": false,
      "normalized": false,
      "special": true
    },
    {
      "id": 120321,
      "content": "<｜hy_place▁holder▁no▁303｜>",
      "single_word": false,
      "lstrip": false,
      "rstrip": false,
      "normalized": false,
      "special": true
    },
    {
      "id": 120322,
      "content": "<｜hy_place▁holder▁no▁304｜>",
      "single_word": false,
      "lstrip": false,
      "rstrip": false,
      "normalized": false,
      "special": true
    },
    {
      "id": 120323,
      "content": "<｜hy_place▁holder▁no▁305｜>",
      "single_word": false,
      "lstrip": false,
      "rstrip": false,
      "normalized": false,
      "special": true
    },
    {
      "id": 120324,
      "content": "<｜hy_place▁holder▁no▁306｜>",
      "single_word": false,
      "lstrip": false,
      "rstrip": false,
      "normalized": false,
      "special": true
    },
    {
      "id": 120325,
      "content": "<｜hy_place▁holder▁no▁307｜>",
      "single_word": false,
      "lstrip": false,
      "rstrip": false,
      "normalized": false,
      "special": true
    },
    {
      "id": 120326,
      "content": "<｜hy_place▁holder▁no▁308｜>",
      "single_word": false,
      "lstrip": false,
      "rstrip": false,
      "normalized": false,
      "special": true
    },
    {
      "id": 120327,
      "content": "<｜hy_place▁holder▁no▁309｜>",
      "single_word": false,
      "lstrip": false,
      "rstrip": false,
      "normalized": false,
      "special": true
    },
    {
      "id": 120328,
      "content": "<｜hy_place▁holder▁no▁310｜>",
      "single_word": false,
      "lstrip": false,
      "rstrip": false,
      "normalized": false,
      "special": true
    },
    {
      "id": 120329,
      "content": "<｜hy_place▁holder▁no▁311｜>",
      "single_word": false,
      "lstrip": false,
      "rstrip": false,
      "normalized": false,
      "special": true
    },
    {
      "id": 120330,
      "content": "<｜hy_place▁holder▁no▁312｜>",
      "single_word": false,
      "lstrip": false,
      "rstrip": false,
      "normalized": false,
      "special": true
    },
    {
      "id": 120331,
      "content": "<｜hy_place▁holder▁no▁313｜>",
      "single_word": false,
      "lstrip": false,
      "rstrip": false,
      "normalized": false,
      "special": true
    },
    {
      "id": 120332,
      "content": "<｜hy_place▁holder▁no▁314｜>",
      "single_word": false,
      "lstrip": false,
      "rstrip": false,
      "normalized": false,
      "special": true
    },
    {
      "id": 120333,
      "content": "<｜hy_place▁holder▁no▁315｜>",
      "single_word": false,
      "lstrip": false,
      "rstrip": false,
      "normalized": false,
      "special": true
    },
    {
      "id": 120334,
      "content": "<｜hy_place▁holder▁no▁316｜>",
      "single_word": false,
      "lstrip": false,
      "rstrip": false,
      "normalized": false,
      "special": true
    },
    {
      "id": 120335,
      "content": "<｜hy_place▁holder▁no▁317｜>",
      "single_word": false,
      "lstrip": false,
      "rstrip": false,
      "normalized": false,
      "special": true
    },
    {
      "id": 120336,
      "content": "<｜hy_place▁holder▁no▁318｜>",
      "single_word": false,
      "lstrip": false,
      "rstrip": false,
      "normalized": false,
      "special": true
    },
    {
      "id": 120337,
      "content": "<｜hy_place▁holder▁no▁319｜>",
      "single_word": false,
      "lstrip": false,
      "rstrip": false,
      "normalized": false,
      "special": true
    },
    {
      "id": 120338,
      "content": "<｜hy_place▁holder▁no▁320｜>",
      "single_word": false,
      "lstrip": false,
      "rstrip": false,
      "normalized": false,
      "special": true
    },
    {
      "id": 120339,
      "content": "<｜hy_place▁holder▁no▁321｜>",
      "single_word": false,
      "lstrip": false,
      "rstrip": false,
      "normalized": false,
      "special": true
    },
    {
      "id": 120340,
      "content": "<｜hy_place▁holder▁no▁322｜>",
      "single_word": false,
      "lstrip": false,
      "rstrip": false,
      "normalized": false,
      "special": true
    },
    {
      "id": 120341,
      "content": "<｜hy_place▁holder▁no▁323｜>",
      "single_word": false,
      "lstrip": false,
      "rstrip": false,
      "normalized": false,
      "special": true
    },
    {
      "id": 120342,
      "content": "<｜hy_place▁holder▁no▁324｜>",
      "single_word": false,
      "lstrip": false,
      "rstrip": false,
      "normalized": false,
      "special": true
    },
    {
      "id": 120343,
      "content": "<｜hy_place▁holder▁no▁325｜>",
      "single_word": false,
      "lstrip": false,
      "rstrip": false,
      "normalized": false,
      "special": true
    },
    {
      "id": 120344,
      "content": "<｜hy_place▁holder▁no▁326｜>",
      "single_word": false,
      "lstrip": false,
      "rstrip": false,
      "normalized": false,
      "special": true
    },
    {
      "id": 120345,
      "content": "<｜hy_place▁holder▁no▁327｜>",
      "single_word": false,
      "lstrip": false,
      "rstrip": false,
      "normalized": false,
      "special": true
    },
    {
      "id": 120346,
      "content": "<｜hy_place▁holder▁no▁328｜>",
      "single_word": false,
      "lstrip": false,
      "rstrip": false,
      "normalized": false,
      "special": true
    },
    {
      "id": 120347,
      "content": "<｜hy_place▁holder▁no▁329｜>",
      "single_word": false,
      "lstrip": false,
      "rstrip": false,
      "normalized": false,
      "special": true
    },
    {
      "id": 120348,
      "content": "<｜hy_place▁holder▁no▁330｜>",
      "single_word": false,
      "lstrip": false,
      "rstrip": false,
      "normalized": false,
      "special": true
    },
    {
      "id": 120349,
      "content": "<｜hy_place▁holder▁no▁331｜>",
      "single_word": false,
      "lstrip": false,
      "rstrip": false,
      "normalized": false,
      "special": true
    },
    {
      "id": 120350,
      "content": "<｜hy_place▁holder▁no▁332｜>",
      "single_word": false,
      "lstrip": false,
      "rstrip": false,
      "normalized": false,
      "special": true
    },
    {
      "id": 120351,
      "content": "<｜hy_place▁holder▁no▁333｜>",
      "single_word": false,
      "lstrip": false,
      "rstrip": false,
      "normalized": false,
      "special": true
    },
    {
      "id": 120352,
      "content": "<｜hy_place▁holder▁no▁334｜>",
      "single_word": false,
      "lstrip": false,
      "rstrip": false,
      "normalized": false,
      "special": true
    },
    {
      "id": 120353,
      "content": "<｜hy_place▁holder▁no▁335｜>",
      "single_word": false,
      "lstrip": false,
      "rstrip": false,
      "normalized": false,
      "special": true
    },
    {
      "id": 120354,
      "content": "<｜hy_place▁holder▁no▁336｜>",
      "single_word": false,
      "lstrip": false,
      "rstrip": false,
      "normalized": false,
      "special": true
    },
    {
      "id": 120355,
      "content": "<｜hy_place▁holder▁no▁337｜>",
      "single_word": false,
      "lstrip": false,
      "rstrip": false,
      "normalized": false,
      "special": true
    },
    {
      "id": 120356,
      "content": "<｜hy_place▁holder▁no▁338｜>",
      "single_word": false,
      "lstrip": false,
      "rstrip": false,
      "normalized": false,
      "special": true
    },
    {
      "id": 120357,
      "content": "<｜hy_place▁holder▁no▁339｜>",
      "single_word": false,
      "lstrip": false,
      "rstrip": false,
      "normalized": false,
      "special": true
    },
    {
      "id": 120358,
      "content": "<｜hy_place▁holder▁no▁340｜>",
      "single_word": false,
      "lstrip": false,
      "rstrip": false,
      "normalized": false,
      "special": true
    },
    {
      "id": 120359,
      "content": "<｜hy_place▁holder▁no▁341｜>",
      "single_word": false,
      "lstrip": false,
      "rstrip": false,
      "normalized": false,
      "special": true
    },
    {
      "id": 120360,
      "content": "<｜hy_place▁holder▁no▁342｜>",
      "single_word": false,
      "lstrip": false,
      "rstrip": false,
      "normalized": false,
      "special": true
    },
    {
      "id": 120361,
      "content": "<｜hy_place▁holder▁no▁343｜>",
      "single_word": false,
      "lstrip": false,
      "rstrip": false,
      "normalized": false,
      "special": true
    },
    {
      "id": 120362,
      "content": "<｜hy_place▁holder▁no▁344｜>",
      "single_word": false,
      "lstrip": false,
      "rstrip": false,
      "normalized": false,
      "special": true
    },
    {
      "id": 120363,
      "content": "<｜hy_place▁holder▁no▁345｜>",
      "single_word": false,
      "lstrip": false,
      "rstrip": false,
      "normalized": false,
      "special": true
    },
    {
      "id": 120364,
      "content": "<｜hy_place▁holder▁no▁346｜>",
      "single_word": false,
      "lstrip": false,
      "rstrip": false,
      "normalized": false,
      "special": true
    },
    {
      "id": 120365,
      "content": "<｜hy_place▁holder▁no▁347｜>",
      "single_word": false,
      "lstrip": false,
      "rstrip": false,
      "normalized": false,
      "special": true
    },
    {
      "id": 120366,
      "content": "<｜hy_place▁holder▁no▁348｜>",
      "single_word": false,
      "lstrip": false,
      "rstrip": false,
      "normalized": false,
      "special": true
    },
    {
      "id": 120367,
      "content": "<｜hy_place▁holder▁no▁349｜>",
      "single_word": false,
      "lstrip": false,
      "rstrip": false,
      "normalized": false,
      "special": true
    },
    {
      "id": 120368,
      "content": "<｜hy_place▁holder▁no▁350｜>",
      "single_word": false,
      "lstrip": false,
      "rstrip": false,
      "normalized": false,
      "special": true
    },
    {
      "id": 120369,
      "content": "<｜hy_place▁holder▁no▁351｜>",
      "single_word": false,
      "lstrip": false,
      "rstrip": false,
      "normalized": false,
      "special": true
    },
    {
      "id": 120370,
      "content": "<｜hy_place▁holder▁no▁352｜>",
      "single_word": false,
      "lstrip": false,
      "rstrip": false,
      "normalized": false,
      "special": true
    },
    {
      "id": 120371,
      "content": "<｜hy_place▁holder▁no▁353｜>",
      "single_word": false,
      "lstrip": false,
      "rstrip": false,
      "normalized": false,
      "special": true
    },
    {
      "id": 120372,
      "content": "<｜hy_place▁holder▁no▁354｜>",
      "single_word": false,
      "lstrip": false,
      "rstrip": false,
      "normalized": false,
      "special": true
    },
    {
      "id": 120373,
      "content": "<｜hy_place▁holder▁no▁355｜>",
      "single_word": false,
      "lstrip": false,
      "rstrip": false,
      "normalized": false,
      "special": true
    },
    {
      "id": 120374,
      "content": "<｜hy_place▁holder▁no▁356｜>",
      "single_word": false,
      "lstrip": false,
      "rstrip": false,
      "normalized": false,
      "special": true
    },
    {
      "id": 120375,
      "content": "<｜hy_place▁holder▁no▁357｜>",
      "single_word": false,
      "lstrip": false,
      "rstrip": false,
      "normalized": false,
      "special": true
    },
    {
      "id": 120376,
      "content": "<｜hy_place▁holder▁no▁358｜>",
      "single_word": false,
      "lstrip": false,
      "rstrip": false,
      "normalized": false,
      "special": true
    },
    {
      "id": 120377,
      "content": "<｜hy_place▁holder▁no▁359｜>",
      "single_word": false,
      "lstrip": false,
      "rstrip": false,
      "normalized": false,
      "special": true
    },
    {
      "id": 120378,
      "content": "<｜hy_place▁holder▁no▁360｜>",
      "single_word": false,
      "lstrip": false,
      "rstrip": false,
      "normalized": false,
      "special": true
    },
    {
      "id": 120379,
      "content": "<｜hy_place▁holder▁no▁361｜>",
      "single_word": false,
      "lstrip": false,
      "rstrip": false,
      "normalized": false,
      "special": true
    },
    {
      "id": 120380,
      "content": "<｜hy_place▁holder▁no▁362｜>",
      "single_word": false,
      "lstrip": false,
      "rstrip": false,
      "normalized": false,
      "special": true
    },
    {
      "id": 120381,
      "content": "<｜hy_place▁holder▁no▁363｜>",
      "single_word": false,
      "lstrip": false,
      "rstrip": false,
      "normalized": false,
      "special": true
    },
    {
      "id": 120382,
      "content": "<｜hy_place▁holder▁no▁364｜>",
      "single_word": false,
      "lstrip": false,
      "rstrip": false,
      "normalized": false,
      "special": true
    },
    {
      "id": 120383,
      "content": "<｜hy_place▁holder▁no▁365｜>",
      "single_word": false,
      "lstrip": false,
      "rstrip": false,
      "normalized": false,
      "special": true
    },
    {
      "id": 120384,
      "content": "<｜hy_place▁holder▁no▁366｜>",
      "single_word": false,
      "lstrip": false,
      "rstrip": false,
      "normalized": false,
      "special": true
    },
    {
      "id": 120385,
      "content": "<｜hy_place▁holder▁no▁367｜>",
      "single_word": false,
      "lstrip": false,
      "rstrip": false,
      "normalized": false,
      "special": true
    },
    {
      "id": 120386,
      "content": "<｜hy_place▁holder▁no▁368｜>",
      "single_word": false,
      "lstrip": false,
      "rstrip": false,
      "normalized": false,
      "special": true
    },
    {
      "id": 120387,
      "content": "<｜hy_place▁holder▁no▁369｜>",
      "single_word": false,
      "lstrip": false,
      "rstrip": false,
      "normalized": false,
      "special": true
    },
    {
      "id": 120388,
      "content": "<｜hy_place▁holder▁no▁370｜>",
      "single_word": false,
      "lstrip": false,
      "rstrip": false,
      "normalized": false,
      "special": true
    },
    {
      "id": 120389,
      "content": "<｜hy_place▁holder▁no▁371｜>",
      "single_word": false,
      "lstrip": false,
      "rstrip": false,
      "normalized": false,
      "special": true
    },
    {
      "id": 120390,
      "content": "<｜hy_place▁holder▁no▁372｜>",
      "single_word": false,
      "lstrip": false,
      "rstrip": false,
      "normalized": false,
      "special": true
    },
    {
      "id": 120391,
      "content": "<｜hy_place▁holder▁no▁373｜>",
      "single_word": false,
      "lstrip": false,
      "rstrip": false,
      "normalized": false,
      "special": true
    },
    {
      "id": 120392,
      "content": "<｜hy_place▁holder▁no▁374｜>",
      "single_word": false,
      "lstrip": false,
      "rstrip": false,
      "normalized": false,
      "special": true
    },
    {
      "id": 120393,
      "content": "<｜hy_place▁holder▁no▁375｜>",
      "single_word": false,
      "lstrip": false,
      "rstrip": false,
      "normalized": false,
      "special": true
    },
    {
      "id": 120394,
      "content": "<｜hy_place▁holder▁no▁376｜>",
      "single_word": false,
      "lstrip": false,
      "rstrip": false,
      "normalized": false,
      "special": true
    },
    {
      "id": 120395,
      "content": "<｜hy_place▁holder▁no▁377｜>",
      "single_word": false,
      "lstrip": false,
      "rstrip": false,
      "normalized": false,
      "special": true
    },
    {
      "id": 120396,
      "content": "<｜hy_place▁holder▁no▁378｜>",
      "single_word": false,
      "lstrip": false,
      "rstrip": false,
      "normalized": false,
      "special": true
    },
    {
      "id": 120397,
      "content": "<｜hy_place▁holder▁no▁379｜>",
      "single_word": false,
      "lstrip": false,
      "rstrip": false,
      "normalized": false,
      "special": true
    },
    {
      "id": 120398,
      "content": "<｜hy_place▁holder▁no▁380｜>",
      "single_word": false,
      "lstrip": false,
      "rstrip": false,
      "normalized": false,
      "special": true
    },
    {
      "id": 120399,
      "content": "<｜hy_place▁holder▁no▁381｜>",
      "single_word": false,
      "lstrip": false,
      "rstrip": false,
      "normalized": false,
      "special": true
    },
    {
      "id": 120400,
      "content": "<｜hy_place▁holder▁no▁382｜>",
      "single_word": false,
      "lstrip": false,
      "rstrip": false,
      "normalized": false,
      "special": true
    },
    {
      "id": 120401,
      "content": "<｜hy_place▁holder▁no▁383｜>",
      "single_word": false,
      "lstrip": false,
      "rstrip": false,
      "normalized": false,
      "special": true
    },
    {
      "id": 120402,
      "content": "<｜hy_place▁holder▁no▁384｜>",
      "single_word": false,
      "lstrip": false,
      "rstrip": false,
      "normalized": false,
      "special": true
    },
    {
      "id": 120403,
      "content": "<｜hy_place▁holder▁no▁385｜>",
      "single_word": false,
      "lstrip": false,
      "rstrip": false,
      "normalized": false,
      "special": true
    },
    {
      "id": 120404,
      "content": "<｜hy_place▁holder▁no▁386｜>",
      "single_word": false,
      "lstrip": false,
      "rstrip": false,
      "normalized": false,
      "special": true
    },
    {
      "id": 120405,
      "content": "<｜hy_place▁holder▁no▁387｜>",
      "single_word": false,
      "lstrip": false,
      "rstrip": false,
      "normalized": false,
      "special": true
    },
    {
      "id": 120406,
      "content": "<｜hy_place▁holder▁no▁388｜>",
      "single_word": false,
      "lstrip": false,
      "rstrip": false,
      "normalized": false,
      "special": true
    },
    {
      "id": 120407,
      "content": "<｜hy_place▁holder▁no▁389｜>",
      "single_word": false,
      "lstrip": false,
      "rstrip": false,
      "normalized": false,
      "special": true
    },
    {
      "id": 120408,
      "content": "<｜hy_place▁holder▁no▁390｜>",
      "single_word": false,
      "lstrip": false,
      "rstrip": false,
      "normalized": false,
      "special": true
    },
    {
      "id": 120409,
      "content": "<｜hy_place▁holder▁no▁391｜>",
      "single_word": false,
      "lstrip": false,
      "rstrip": false,
      "normalized": false,
      "special": true
    },
    {
      "id": 120410,
      "content": "<｜hy_place▁holder▁no▁392｜>",
      "single_word": false,
      "lstrip": false,
      "rstrip": false,
      "normalized": false,
      "special": true
    },
    {
      "id": 120411,
      "content": "<｜hy_place▁holder▁no▁393｜>",
      "single_word": false,
      "lstrip": false,
      "rstrip": false,
      "normalized": false,
      "special": true
    },
    {
      "id": 120412,
      "content": "<｜hy_place▁holder▁no▁394｜>",
      "single_word": false,
      "lstrip": false,
      "rstrip": false,
      "normalized": false,
      "special": true
    },
    {
      "id": 120413,
      "content": "<｜hy_place▁holder▁no▁395｜>",
      "single_word": false,
      "lstrip": false,
      "rstrip": false,
      "normalized": false,
      "special": true
    },
    {
      "id": 120414,
      "content": "<｜hy_place▁holder▁no▁396｜>",
      "single_word": false,
      "lstrip": false,
      "rstrip": false,
      "normalized": false,
      "special": true
    },
    {
      "id": 120415,
      "content": "<｜hy_place▁holder▁no▁397｜>",
      "single_word": false,
      "lstrip": false,
      "rstrip": false,
      "normalized": false,
      "special": true
    },
    {
      "id": 120416,
      "content": "<｜hy_place▁holder▁no▁398｜>",
      "single_word": false,
      "lstrip": false,
      "rstrip": false,
      "normalized": false,
      "special": true
    },
    {
      "id": 120417,
      "content": "<｜hy_place▁holder▁no▁399｜>",
      "single_word": false,
      "lstrip": false,
      "rstrip": false,
      "normalized": false,
      "special": true
    },
    {
      "id": 120418,
      "content": "<｜hy_place▁holder▁no▁400｜>",
      "single_word": false,
      "lstrip": false,
      "rstrip": false,
      "normalized": false,
      "special": true
    },
    {
      "id": 120419,
      "content": "<｜hy_place▁holder▁no▁401｜>",
      "single_word": false,
      "lstrip": false,
      "rstrip": false,
      "normalized": false,
      "special": true
    },
    {
      "id": 120420,
      "content": "<｜hy_place▁holder▁no▁402｜>",
      "single_word": false,
      "lstrip": false,
      "rstrip": false,
      "normalized": false,
      "special": true
    },
    {
      "id": 120421,
      "content": "<｜hy_place▁holder▁no▁403｜>",
      "single_word": false,
      "lstrip": false,
      "rstrip": false,
      "normalized": false,
      "special": true
    },
    {
      "id": 120422,
      "content": "<｜hy_place▁holder▁no▁404｜>",
      "single_word": false,
      "lstrip": false,
      "rstrip": false,
      "normalized": false,
      "special": true
    },
    {
      "id": 120423,
      "content": "<｜hy_place▁holder▁no▁405｜>",
      "single_word": false,
      "lstrip": false,
      "rstrip": false,
      "normalized": false,
      "special": true
    },
    {
      "id": 120424,
      "content": "<｜hy_place▁holder▁no▁406｜>",
      "single_word": false,
      "lstrip": false,
      "rstrip": false,
      "normalized": false,
      "special": true
    },
    {
      "id": 120425,
      "content": "<｜hy_place▁holder▁no▁407｜>",
      "single_word": false,
      "lstrip": false,
      "rstrip": false,
      "normalized": false,
      "special": true
    },
    {
      "id": 120426,
      "content": "<｜hy_place▁holder▁no▁408｜>",
      "single_word": false,
      "lstrip": false,
      "rstrip": false,
      "normalized": false,
      "special": true
    },
    {
      "id": 120427,
      "content": "<｜hy_place▁holder▁no▁409｜>",
      "single_word": false,
      "lstrip": false,
      "rstrip": false,
      "normalized": false,
      "special": true
    },
    {
      "id": 120428,
      "content": "<｜hy_place▁holder▁no▁410｜>",
      "single_word": false,
      "lstrip": false,
      "rstrip": false,
      "normalized": false,
      "special": true
    },
    {
      "id": 120429,
      "content": "<｜hy_place▁holder▁no▁411｜>",
      "single_word": false,
      "lstrip": false,
      "rstrip": false,
      "normalized": false,
      "special": true
    },
    {
      "id": 120430,
      "content": "<｜hy_place▁holder▁no▁412｜>",
      "single_word": false,
      "lstrip": false,
      "rstrip": false,
      "normalized": false,
      "special": true
    },
    {
      "id": 120431,
      "content": "<｜hy_place▁holder▁no▁413｜>",
      "single_word": false,
      "lstrip": false,
      "rstrip": false,
      "normalized": false,
      "special": true
    },
    {
      "id": 120432,
      "content": "<｜hy_place▁holder▁no▁414｜>",
      "single_word": false,
      "lstrip": false,
      "rstrip": false,
      "normalized": false,
      "special": true
    },
    {
      "id": 120433,
      "content": "<｜hy_place▁holder▁no▁415｜>",
      "single_word": false,
      "lstrip": false,
      "rstrip": false,
      "normalized": false,
      "special": true
    },
    {
      "id": 120434,
      "content": "<｜hy_place▁holder▁no▁416｜>",
      "single_word": false,
      "lstrip": false,
      "rstrip": false,
      "normalized": false,
      "special": true
    },
    {
      "id": 120435,
      "content": "<｜hy_place▁holder▁no▁417｜>",
      "single_word": false,
      "lstrip": false,
      "rstrip": false,
      "normalized": false,
      "special": true
    },
    {
      "id": 120436,
      "content": "<｜hy_place▁holder▁no▁418｜>",
      "single_word": false,
      "lstrip": false,
      "rstrip": false,
      "normalized": false,
      "special": true
    },
    {
      "id": 120437,
      "content": "<｜hy_place▁holder▁no▁419｜>",
      "single_word": false,
      "lstrip": false,
      "rstrip": false,
      "normalized": false,
      "special": true
    },
    {
      "id": 120438,
      "content": "<｜hy_place▁holder▁no▁420｜>",
      "single_word": false,
      "lstrip": false,
      "rstrip": false,
      "normalized": false,
      "special": true
    },
    {
      "id": 120439,
      "content": "<｜hy_place▁holder▁no▁421｜>",
      "single_word": false,
      "lstrip": false,
      "rstrip": false,
      "normalized": false,
      "special": true
    },
    {
      "id": 120440,
      "content": "<｜hy_place▁holder▁no▁422｜>",
      "single_word": false,
      "lstrip": false,
      "rstrip": false,
      "normalized": false,
      "special": true
    },
    {
      "id": 120441,
      "content": "<｜hy_place▁holder▁no▁423｜>",
      "single_word": false,
      "lstrip": false,
      "rstrip": false,
      "normalized": false,
      "special": true
    },
    {
      "id": 120442,
      "content": "<｜hy_place▁holder▁no▁424｜>",
      "single_word": false,
      "lstrip": false,
      "rstrip": false,
      "normalized": false,
      "special": true
    },
    {
      "id": 120443,
      "content": "<｜hy_place▁holder▁no▁425｜>",
      "single_word": false,
      "lstrip": false,
      "rstrip": false,
      "normalized": false,
      "special": true
    },
    {
      "id": 120444,
      "content": "<｜hy_place▁holder▁no▁426｜>",
      "single_word": false,
      "lstrip": false,
      "rstrip": false,
      "normalized": false,
      "special": true
    },
    {
      "id": 120445,
      "content": "<｜hy_place▁holder▁no▁427｜>",
      "single_word": false,
      "lstrip": false,
      "rstrip": false,
      "normalized": false,
      "special": true
    },
    {
      "id": 120446,
      "content": "<｜hy_place▁holder▁no▁428｜>",
      "single_word": false,
      "lstrip": false,
      "rstrip": false,
      "normalized": false,
      "special": true
    },
    {
      "id": 120447,
      "content": "<｜hy_place▁holder▁no▁429｜>",
      "single_word": false,
      "lstrip": false,
      "rstrip": false,
      "normalized": false,
      "special": true
    },
    {
      "id": 120448,
      "content": "<｜hy_place▁holder▁no▁430｜>",
      "single_word": false,
      "lstrip": false,
      "rstrip": false,
      "normalized": false,
      "special": true
    },
    {
      "id": 120449,
      "content": "<｜hy_place▁holder▁no▁431｜>",
      "single_word": false,
      "lstrip": false,
      "rstrip": false,
      "normalized": false,
      "special": true
    },
    {
      "id": 120450,
      "content": "<｜hy_place▁holder▁no▁432｜>",
      "single_word": false,
      "lstrip": false,
      "rstrip": false,
      "normalized": false,
      "special": true
    },
    {
      "id": 120451,
      "content": "<｜hy_place▁holder▁no▁433｜>",
      "single_word": false,
      "lstrip": false,
      "rstrip": false,
      "normalized": false,
      "special": true
    },
    {
      "id": 120452,
      "content": "<｜hy_place▁holder▁no▁434｜>",
      "single_word": false,
      "lstrip": false,
      "rstrip": false,
      "normalized": false,
      "special": true
    },
    {
      "id": 120453,
      "content": "<｜hy_place▁holder▁no▁435｜>",
      "single_word": false,
      "lstrip": false,
      "rstrip": false,
      "normalized": false,
      "special": true
    },
    {
      "id": 120454,
      "content": "<｜hy_place▁holder▁no▁436｜>",
      "single_word": false,
      "lstrip": false,
      "rstrip": false,
      "normalized": false,
      "special": true
    },
    {
      "id": 120455,
      "content": "<｜hy_place▁holder▁no▁437｜>",
      "single_word": false,
      "lstrip": false,
      "rstrip": false,
      "normalized": false,
      "special": true
    },
    {
      "id": 120456,
      "content": "<｜hy_place▁holder▁no▁438｜>",
      "single_word": false,
      "lstrip": false,
      "rstrip": false,
      "normalized": false,
      "special": true
    },
    {
      "id": 120457,
      "content": "<｜hy_place▁holder▁no▁439｜>",
      "single_word": false,
      "lstrip": false,
      "rstrip": false,
      "normalized": false,
      "special": true
    },
    {
      "id": 120458,
      "content": "<｜hy_place▁holder▁no▁440｜>",
      "single_word": false,
      "lstrip": false,
      "rstrip": false,
      "normalized": false,
      "special": true
    },
    {
      "id": 120459,
      "content": "<｜hy_place▁holder▁no▁441｜>",
      "single_word": false,
      "lstrip": false,
      "rstrip": false,
      "normalized": false,
      "special": true
    },
    {
      "id": 120460,
      "content": "<｜hy_place▁holder▁no▁442｜>",
      "single_word": false,
      "lstrip": false,
      "rstrip": false,
      "normalized": false,
      "special": true
    },
    {
      "id": 120461,
      "content": "<｜hy_place▁holder▁no▁443｜>",
      "single_word": false,
      "lstrip": false,
      "rstrip": false,
      "normalized": false,
      "special": true
    },
    {
      "id": 120462,
      "content": "<｜hy_place▁holder▁no▁444｜>",
      "single_word": false,
      "lstrip": false,
      "rstrip": false,
      "normalized": false,
      "special": true
    },
    {
      "id": 120463,
      "content": "<｜hy_place▁holder▁no▁445｜>",
      "single_word": false,
      "lstrip": false,
      "rstrip": false,
      "normalized": false,
      "special": true
    },
    {
      "id": 120464,
      "content": "<｜hy_place▁holder▁no▁446｜>",
      "single_word": false,
      "lstrip": false,
      "rstrip": false,
      "normalized": false,
      "special": true
    },
    {
      "id": 120465,
      "content": "<｜hy_place▁holder▁no▁447｜>",
      "single_word": false,
      "lstrip": false,
      "rstrip": false,
      "normalized": false,
      "special": true
    },
    {
      "id": 120466,
      "content": "<｜hy_place▁holder▁no▁448｜>",
      "single_word": false,
      "lstrip": false,
      "rstrip": false,
      "normalized": false,
      "special": true
    },
    {
      "id": 120467,
      "content": "<｜hy_place▁holder▁no▁449｜>",
      "single_word": false,
      "lstrip": false,
      "rstrip": false,
      "normalized": false,
      "special": true
    },
    {
      "id": 120468,
      "content": "<｜hy_place▁holder▁no▁450｜>",
      "single_word": false,
      "lstrip": false,
      "rstrip": false,
      "normalized": false,
      "special": true
    },
    {
      "id": 120469,
      "content": "<｜hy_place▁holder▁no▁451｜>",
      "single_word": false,
      "lstrip": false,
      "rstrip": false,
      "normalized": false,
      "special": true
    },
    {
      "id": 120470,
      "content": "<｜hy_place▁holder▁no▁452｜>",
      "single_word": false,
      "lstrip": false,
      "rstrip": false,
      "normalized": false,
      "special": true
    },
    {
      "id": 120471,
      "content": "<｜hy_place▁holder▁no▁453｜>",
      "single_word": false,
      "lstrip": false,
      "rstrip": false,
      "normalized": false,
      "special": true
    },
    {
      "id": 120472,
      "content": "<｜hy_place▁holder▁no▁454｜>",
      "single_word": false,
      "lstrip": false,
      "rstrip": false,
      "normalized": false,
      "special": true
    },
    {
      "id": 120473,
      "content": "<｜hy_place▁holder▁no▁455｜>",
      "single_word": false,
      "lstrip": false,
      "rstrip": false,
      "normalized": false,
      "special": true
    },
    {
      "id": 120474,
      "content": "<｜hy_place▁holder▁no▁456｜>",
      "single_word": false,
      "lstrip": false,
      "rstrip": false,
      "normalized": false,
      "special": true
    },
    {
      "id": 120475,
      "content": "<｜hy_place▁holder▁no▁457｜>",
      "single_word": false,
      "lstrip": false,
      "rstrip": false,
      "normalized": false,
      "special": true
    },
    {
      "id": 120476,
      "content": "<｜hy_place▁holder▁no▁458｜>",
      "single_word": false,
      "lstrip": false,
      "rstrip": false,
      "normalized": false,
      "special": true
    },
    {
      "id": 120477,
      "content": "<｜hy_place▁holder▁no▁459｜>",
      "single_word": false,
      "lstrip": false,
      "rstrip": false,
      "normalized": false,
      "special": true
    },
    {
      "id": 120478,
      "content": "<｜hy_place▁holder▁no▁460｜>",
      "single_word": false,
      "lstrip": false,
      "rstrip": false,
      "normalized": false,
      "special": true
    },
    {
      "id": 120479,
      "content": "<｜hy_place▁holder▁no▁461｜>",
      "single_word": false,
      "lstrip": false,
      "rstrip": false,
      "normalized": false,
      "special": true
    },
    {
      "id": 120480,
      "content": "<｜hy_place▁holder▁no▁462｜>",
      "single_word": false,
      "lstrip": false,
      "rstrip": false,
      "normalized": false,
      "special": true
    },
    {
      "id": 120481,
      "content": "<｜hy_place▁holder▁no▁463｜>",
      "single_word": false,
      "lstrip": false,
      "rstrip": false,
      "normalized": false,
      "special": true
    },
    {
      "id": 120482,
      "content": "<｜hy_place▁holder▁no▁464｜>",
      "single_word": false,
      "lstrip": false,
      "rstrip": false,
      "normalized": false,
      "special": true
    },
    {
      "id": 120483,
      "content": "<｜hy_place▁holder▁no▁465｜>",
      "single_word": false,
      "lstrip": false,
      "rstrip": false,
      "normalized": false,
      "special": true
    },
    {
      "id": 120484,
      "content": "<｜hy_place▁holder▁no▁466｜>",
      "single_word": false,
      "lstrip": false,
      "rstrip": false,
      "normalized": false,
      "special": true
    },
    {
      "id": 120485,
      "content": "<｜hy_place▁holder▁no▁467｜>",
      "single_word": false,
      "lstrip": false,
      "rstrip": false,
      "normalized": false,
      "special": true
    },
    {
      "id": 120486,
      "content": "<｜hy_place▁holder▁no▁468｜>",
      "single_word": false,
      "lstrip": false,
      "rstrip": false,
      "normalized": false,
      "special": true
    },
    {
      "id": 120487,
      "content": "<｜hy_place▁holder▁no▁469｜>",
      "single_word": false,
      "lstrip": false,
      "rstrip": false,
      "normalized": false,
      "special": true
    },
    {
      "id": 120488,
      "content": "<｜hy_place▁holder▁no▁470｜>",
      "single_word": false,
      "lstrip": false,
      "rstrip": false,
      "normalized": false,
      "special": true
    },
    {
      "id": 120489,
      "content": "<｜hy_place▁holder▁no▁471｜>",
      "single_word": false,
      "lstrip": false,
      "rstrip": false,
      "normalized": false,
      "special": true
    },
    {
      "id": 120490,
      "content": "<｜hy_place▁holder▁no▁472｜>",
      "single_word": false,
      "lstrip": false,
      "rstrip": false,
      "normalized": false,
      "special": true
    },
    {
      "id": 120491,
      "content": "<｜hy_place▁holder▁no▁473｜>",
      "single_word": false,
      "lstrip": false,
      "rstrip": false,
      "normalized": false,
      "special": true
    },
    {
      "id": 120492,
      "content": "<｜hy_place▁holder▁no▁474｜>",
      "single_word": false,
      "lstrip": false,
      "rstrip": false,
      "normalized": false,
      "special": true
    },
    {
      "id": 120493,
      "content": "<｜hy_place▁holder▁no▁475｜>",
      "single_word": false,
      "lstrip": false,
      "rstrip": false,
      "normalized": false,
      "special": true
    },
    {
      "id": 120494,
      "content": "<｜hy_place▁holder▁no▁476｜>",
      "single_word": false,
      "lstrip": false,
      "rstrip": false,
      "normalized": false,
      "special": true
    },
    {
      "id": 120495,
      "content": "<｜hy_place▁holder▁no▁477｜>",
      "single_word": false,
      "lstrip": false,
      "rstrip": false,
      "normalized": false,
      "special": true
    },
    {
      "id": 120496,
      "content": "<｜hy_place▁holder▁no▁478｜>",
      "single_word": false,
      "lstrip": false,
      "rstrip": false,
      "normalized": false,
      "special": true
    },
    {
      "id": 120497,
      "content": "<｜hy_place▁holder▁no▁479｜>",
      "single_word": false,
      "lstrip": false,
      "rstrip": false,
      "normalized": false,
      "special": true
    },
    {
      "id": 120498,
      "content": "<｜hy_place▁holder▁no▁480｜>",
      "single_word": false,
      "lstrip": false,
      "rstrip": false,
      "normalized": false,
      "special": true
    },
    {
      "id": 120499,
      "content": "<｜hy_place▁holder▁no▁481｜>",
      "single_word": false,
      "lstrip": false,
      "rstrip": false,
      "normalized": false,
      "special": true
    },
    {
      "id": 120500,
      "content": "<｜hy_place▁holder▁no▁482｜>",
      "single_word": false,
      "lstrip": false,
      "rstrip": false,
      "normalized": false,
      "special": true
    },
    {
      "id": 120501,
      "content": "<｜hy_place▁holder▁no▁483｜>",
      "single_word": false,
      "lstrip": false,
      "rstrip": false,
      "normalized": false,
      "special": true
    },
    {
      "id": 120502,
      "content": "<｜hy_place▁holder▁no▁484｜>",
      "single_word": false,
      "lstrip": false,
      "rstrip": false,
      "normalized": false,
      "special": true
    },
    {
      "id": 120503,
      "content": "<｜hy_place▁holder▁no▁485｜>",
      "single_word": false,
      "lstrip": false,
      "rstrip": false,
      "normalized": false,
      "special": true
    },
    {
      "id": 120504,
      "content": "<｜hy_place▁holder▁no▁486｜>",
      "single_word": false,
      "lstrip": false,
      "rstrip": false,
      "normalized": false,
      "special": true
    },
    {
      "id": 120505,
      "content": "<｜hy_place▁holder▁no▁487｜>",
      "single_word": false,
      "lstrip": false,
      "rstrip": false,
      "normalized": false,
      "special": true
    },
    {
      "id": 120506,
      "content": "<｜hy_place▁holder▁no▁488｜>",
      "single_word": false,
      "lstrip": false,
      "rstrip": false,
      "normalized": false,
      "special": true
    },
    {
      "id": 120507,
      "content": "<｜hy_place▁holder▁no▁489｜>",
      "single_word": false,
      "lstrip": false,
      "rstrip": false,
      "normalized": false,
      "special": true
    },
    {
      "id": 120508,
      "content": "<｜hy_place▁holder▁no▁490｜>",
      "single_word": false,
      "lstrip": false,
      "rstrip": false,
      "normalized": false,
      "special": true
    },
    {
      "id": 120509,
      "content": "<｜hy_place▁holder▁no▁491｜>",
      "single_word": false,
      "lstrip": false,
      "rstrip": false,
      "normalized": false,
      "special": true
    },
    {
      "id": 120510,
      "content": "<｜hy_place▁holder▁no▁492｜>",
      "single_word": false,
      "lstrip": false,
      "rstrip": false,
      "normalized": false,
      "special": true
    },
    {
      "id": 120511,
      "content": "<｜hy_place▁holder▁no▁493｜>",
      "single_word": false,
      "lstrip": false,
      "rstrip": false,
      "normalized": false,
      "special": true
    },
    {
      "id": 120512,
      "content": "<｜hy_place▁holder▁no▁494｜>",
      "single_word": false,
      "lstrip": false,
      "rstrip": false,
      "normalized": false,
      "special": true
    },
    {
      "id": 120513,
      "content": "<｜hy_place▁holder▁no▁495｜>",
      "single_word": false,
      "lstrip": false,
      "rstrip": false,
      "normalized": false,
      "special": true
    },
    {
      "id": 120514,
      "content": "<｜hy_place▁holder▁no▁496｜>",
      "single_word": false,
      "lstrip": false,
      "rstrip": false,
      "normalized": false,
      "special": true
    },
    {
      "id": 120515,
      "content": "<｜hy_place▁holder▁no▁497｜>",
      "single_word": false,
      "lstrip": false,
      "rstrip": false,
      "normalized": false,
      "special": true
    },
    {
      "id": 120516,
      "content": "<｜hy_place▁holder▁no▁498｜>",
      "single_word": false,
      "lstrip": false,
      "rstrip": false,
      "normalized": false,
      "special": true
    },
    {
      "id": 120517,
      "content": "<｜hy_place▁holder▁no▁499｜>",
      "single_word": false,
      "lstrip": false,
      "rstrip": false,
      "normalized": false,
      "special": true
    },
    {
      "id": 120518,
      "content": "<｜hy_place▁holder▁no▁500｜>",
      "single_word": false,
      "lstrip": false,
      "rstrip": false,
      "normalized": false,
      "special": true
    },
    {
      "id": 120519,
      "content": "<｜hy_place▁holder▁no▁501｜>",
      "single_word": false,
      "lstrip": false,
      "rstrip": false,
      "normalized": false,
      "special": true
    },
    {
      "id": 120520,
      "content": "<｜hy_place▁holder▁no▁502｜>",
      "single_word": false,
      "lstrip": false,
      "rstrip": false,
      "normalized": false,
      "special": true
    },
    {
      "id": 120521,
      "content": "<｜hy_place▁holder▁no▁503｜>",
      "single_word": false,
      "lstrip": false,
      "rstrip": false,
      "normalized": false,
      "special": true
    },
    {
      "id": 120522,
      "content": "<｜hy_place▁holder▁no▁504｜>",
      "single_word": false,
      "lstrip": false,
      "rstrip": false,
      "normalized": false,
      "special": true
    },
    {
      "id": 120523,
      "content": "<｜hy_place▁holder▁no▁505｜>",
      "single_word": false,
      "lstrip": false,
      "rstrip": false,
      "normalized": false,
      "special": true
    },
    {
      "id": 120524,
      "content": "<｜hy_place▁holder▁no▁506｜>",
      "single_word": false,
      "lstrip": false,
      "rstrip": false,
      "normalized": false,
      "special": true
    },
    {
      "id": 120525,
      "content": "<｜hy_place▁holder▁no▁507｜>",
      "single_word": false,
      "lstrip": false,
      "rstrip": false,
      "normalized": false,
      "special": true
    },
    {
      "id": 120526,
      "content": "<｜hy_place▁holder▁no▁508｜>",
      "single_word": false,
      "lstrip": false,
      "rstrip": false,
      "normalized": false,
      "special": true
    },
    {
      "id": 120527,
      "content": "<｜hy_place▁holder▁no▁509｜>",
      "single_word": false,
      "lstrip": false,
      "rstrip": false,
      "normalized": false,
      "special": true
    },
    {
      "id": 120528,
      "content": "<｜hy_place▁holder▁no▁510｜>",
      "single_word": false,
      "lstrip": false,
      "rstrip": false,
      "normalized": false,
      "special": true
    },
    {
      "id": 120529,
      "content": "<｜hy_place▁holder▁no▁511｜>",
      "single_word": false,
      "lstrip": false,
      "rstrip": false,
      "normalized": false,
      "special": true
    },
    {
      "id": 120530,
      "content": "<｜hy_place▁holder▁no▁512｜>",
      "single_word": false,
      "lstrip": false,
      "rstrip": false,
      "normalized": false,
      "special": true
    },
    {
      "id": 120531,
      "content": "<｜hy_place▁holder▁no▁513｜>",
      "single_word": false,
      "lstrip": false,
      "rstrip": false,
      "normalized": false,
      "special": true
    },
    {
      "id": 120532,
      "content": "<｜hy_place▁holder▁no▁514｜>",
      "single_word": false,
      "lstrip": false,
      "rstrip": false,
      "normalized": false,
      "special": true
    },
    {
      "id": 120533,
      "content": "<｜hy_place▁holder▁no▁515｜>",
      "single_word": false,
      "lstrip": false,
      "rstrip": false,
      "normalized": false,
      "special": true
    },
    {
      "id": 120534,
      "content": "<｜hy_place▁holder▁no▁516｜>",
      "single_word": false,
      "lstrip": false,
      "rstrip": false,
      "normalized": false,
      "special": true
    },
    {
      "id": 120535,
      "content": "<｜hy_place▁holder▁no▁517｜>",
      "single_word": false,
      "lstrip": false,
      "rstrip": false,
      "normalized": false,
      "special": true
    },
    {
      "id": 120536,
      "content": "<｜hy_place▁holder▁no▁518｜>",
      "single_word": false,
      "lstrip": false,
      "rstrip": false,
      "normalized": false,
      "special": true
    },
    {
      "id": 120537,
      "content": "<｜hy_place▁holder▁no▁519｜>",
      "single_word": false,
      "lstrip": false,
      "rstrip": false,
      "normalized": false,
      "special": true
    },
    {
      "id": 120538,
      "content": "<｜hy_place▁holder▁no▁520｜>",
      "single_word": false,
      "lstrip": false,
      "rstrip": false,
      "normalized": false,
      "special": true
    },
    {
      "id": 120539,
      "content": "<｜hy_place▁holder▁no▁521｜>",
      "single_word": false,
      "lstrip": false,
      "rstrip": false,
      "normalized": false,
      "special": true
    },
    {
      "id": 120540,
      "content": "<｜hy_place▁holder▁no▁522｜>",
      "single_word": false,
      "lstrip": false,
      "rstrip": false,
      "normalized": false,
      "special": true
    },
    {
      "id": 120541,
      "content": "<｜hy_place▁holder▁no▁523｜>",
      "single_word": false,
      "lstrip": false,
      "rstrip": false,
      "normalized": false,
      "special": true
    },
    {
      "id": 120542,
      "content": "<｜hy_place▁holder▁no▁524｜>",
      "single_word": false,
      "lstrip": false,
      "rstrip": false,
      "normalized": false,
      "special": true
    },
    {
      "id": 120543,
      "content": "<｜hy_place▁holder▁no▁525｜>",
      "single_word": false,
      "lstrip": false,
      "rstrip": false,
      "normalized": false,
      "special": true
    },
    {
      "id": 120544,
      "content": "<｜hy_place▁holder▁no▁526｜>",
      "single_word": false,
      "lstrip": false,
      "rstrip": false,
      "normalized": false,
      "special": true
    },
    {
      "id": 120545,
      "content": "<｜hy_place▁holder▁no▁527｜>",
      "single_word": false,
      "lstrip": false,
      "rstrip": false,
      "normalized": false,
      "special": true
    },
    {
      "id": 120546,
      "content": "<｜hy_place▁holder▁no▁528｜>",
      "single_word": false,
      "lstrip": false,
      "rstrip": false,
      "normalized": false,
      "special": true
    },
    {
      "id": 120547,
      "content": "<｜hy_place▁holder▁no▁529｜>",
      "single_word": false,
      "lstrip": false,
      "rstrip": false,
      "normalized": false,
      "special": true
    },
    {
      "id": 120548,
      "content": "<｜hy_place▁holder▁no▁530｜>",
      "single_word": false,
      "lstrip": false,
      "rstrip": false,
      "normalized": false,
      "special": true
    },
    {
      "id": 120549,
      "content": "<｜hy_place▁holder▁no▁531｜>",
      "single_word": false,
      "lstrip": false,
      "rstrip": false,
      "normalized": false,
      "special": true
    },
    {
      "id": 120550,
      "content": "<｜hy_place▁holder▁no▁532｜>",
      "single_word": false,
      "lstrip": false,
      "rstrip": false,
      "normalized": false,
      "special": true
    },
    {
      "id": 120551,
      "content": "<｜hy_place▁holder▁no▁533｜>",
      "single_word": false,
      "lstrip": false,
      "rstrip": false,
      "normalized": false,
      "special": true
    },
    {
      "id": 120552,
      "content": "<｜hy_place▁holder▁no▁534｜>",
      "single_word": false,
      "lstrip": false,
      "rstrip": false,
      "normalized": false,
      "special": true
    },
    {
      "id": 120553,
      "content": "<｜hy_place▁holder▁no▁535｜>",
      "single_word": false,
      "lstrip": false,
      "rstrip": false,
      "normalized": false,
      "special": true
    },
    {
      "id": 120554,
      "content": "<｜hy_place▁holder▁no▁536｜>",
      "single_word": false,
      "lstrip": false,
      "rstrip": false,
      "normalized": false,
      "special": true
    },
    {
      "id": 120555,
      "content": "<｜hy_place▁holder▁no▁537｜>",
      "single_word": false,
      "lstrip": false,
      "rstrip": false,
      "normalized": false,
      "special": true
    },
    {
      "id": 120556,
      "content": "<｜hy_place▁holder▁no▁538｜>",
      "single_word": false,
      "lstrip": false,
      "rstrip": false,
      "normalized": false,
      "special": true
    },
    {
      "id": 120557,
      "content": "<｜hy_place▁holder▁no▁539｜>",
      "single_word": false,
      "lstrip": false,
      "rstrip": false,
      "normalized": false,
      "special": true
    },
    {
      "id": 120558,
      "content": "<｜hy_place▁holder▁no▁540｜>",
      "single_word": false,
      "lstrip": false,
      "rstrip": false,
      "normalized": false,
      "special": true
    },
    {
      "id": 120559,
      "content": "<｜hy_place▁holder▁no▁541｜>",
      "single_word": false,
      "lstrip": false,
      "rstrip": false,
      "normalized": false,
      "special": true
    },
    {
      "id": 120560,
      "content": "<｜hy_place▁holder▁no▁542｜>",
      "single_word": false,
      "lstrip": false,
      "rstrip": false,
      "normalized": false,
      "special": true
    },
    {
      "id": 120561,
      "content": "<｜hy_place▁holder▁no▁543｜>",
      "single_word": false,
      "lstrip": false,
      "rstrip": false,
      "normalized": false,
      "special": true
    },
    {
      "id": 120562,
      "content": "<｜hy_place▁holder▁no▁544｜>",
      "single_word": false,
      "lstrip": false,
      "rstrip": false,
      "normalized": false,
      "special": true
    },
    {
      "id": 120563,
      "content": "<｜hy_place▁holder▁no▁545｜>",
      "single_word": false,
      "lstrip": false,
      "rstrip": false,
      "normalized": false,
      "special": true
    },
    {
      "id": 120564,
      "content": "<｜hy_place▁holder▁no▁546｜>",
      "single_word": false,
      "lstrip": false,
      "rstrip": false,
      "normalized": false,
      "special": true
    },
    {
      "id": 120565,
      "content": "<｜hy_place▁holder▁no▁547｜>",
      "single_word": false,
      "lstrip": false,
      "rstrip": false,
      "normalized": false,
      "special": true
    },
    {
      "id": 120566,
      "content": "<｜hy_place▁holder▁no▁548｜>",
      "single_word": false,
      "lstrip": false,
      "rstrip": false,
      "normalized": false,
      "special": true
    },
    {
      "id": 120567,
      "content": "<｜hy_place▁holder▁no▁549｜>",
      "single_word": false,
      "lstrip": false,
      "rstrip": false,
      "normalized": false,
      "special": true
    },
    {
      "id": 120568,
      "content": "<｜hy_place▁holder▁no▁550｜>",
      "single_word": false,
      "lstrip": false,
      "rstrip": false,
      "normalized": false,
      "special": true
    },
    {
      "id": 120569,
      "content": "<｜hy_place▁holder▁no▁551｜>",
      "single_word": false,
      "lstrip": false,
      "rstrip": false,
      "normalized": false,
      "special": true
    },
    {
      "id": 120570,
      "content": "<｜hy_place▁holder▁no▁552｜>",
      "single_word": false,
      "lstrip": false,
      "rstrip": false,
      "normalized": false,
      "special": true
    },
    {
      "id": 120571,
      "content": "<｜hy_place▁holder▁no▁553｜>",
      "single_word": false,
      "lstrip": false,
      "rstrip": false,
      "normalized": false,
      "special": true
    },
    {
      "id": 120572,
      "content": "<｜hy_place▁holder▁no▁554｜>",
      "single_word": false,
      "lstrip": false,
      "rstrip": false,
      "normalized": false,
      "special": true
    },
    {
      "id": 120573,
      "content": "<｜hy_place▁holder▁no▁555｜>",
      "single_word": false,
      "lstrip": false,
      "rstrip": false,
      "normalized": false,
      "special": true
    },
    {
      "id": 120574,
      "content": "<｜hy_place▁holder▁no▁556｜>",
      "single_word": false,
      "lstrip": false,
      "rstrip": false,
      "normalized": false,
      "special": true
    },
    {
      "id": 120575,
      "content": "<｜hy_place▁holder▁no▁557｜>",
      "single_word": false,
      "lstrip": false,
      "rstrip": false,
      "normalized": false,
      "special": true
    },
    {
      "id": 120576,
      "content": "<｜hy_place▁holder▁no▁558｜>",
      "single_word": false,
      "lstrip": false,
      "rstrip": false,
      "normalized": false,
      "special": true
    },
    {
      "id": 120577,
      "content": "<｜hy_place▁holder▁no▁559｜>",
      "single_word": false,
      "lstrip": false,
      "rstrip": false,
      "normalized": false,
      "special": true
    },
    {
      "id": 120578,
      "content": "<｜hy_place▁holder▁no▁560｜>",
      "single_word": false,
      "lstrip": false,
      "rstrip": false,
      "normalized": false,
      "special": true
    },
    {
      "id": 120579,
      "content": "<｜hy_place▁holder▁no▁561｜>",
      "single_word": false,
      "lstrip": false,
      "rstrip": false,
      "normalized": false,
      "special": true
    },
    {
      "id": 120580,
      "content": "<｜hy_place▁holder▁no▁562｜>",
      "single_word": false,
      "lstrip": false,
      "rstrip": false,
      "normalized": false,
      "special": true
    },
    {
      "id": 120581,
      "content": "<｜hy_place▁holder▁no▁563｜>",
      "single_word": false,
      "lstrip": false,
      "rstrip": false,
      "normalized": false,
      "special": true
    },
    {
      "id": 120582,
      "content": "<｜hy_place▁holder▁no▁564｜>",
      "single_word": false,
      "lstrip": false,
      "rstrip": false,
      "normalized": false,
      "special": true
    },
    {
      "id": 120583,
      "content": "<｜hy_place▁holder▁no▁565｜>",
      "single_word": false,
      "lstrip": false,
      "rstrip": false,
      "normalized": false,
      "special": true
    },
    {
      "id": 120584,
      "content": "<｜hy_place▁holder▁no▁566｜>",
      "single_word": false,
      "lstrip": false,
      "rstrip": false,
      "normalized": false,
      "special": true
    },
    {
      "id": 120585,
      "content": "<｜hy_place▁holder▁no▁567｜>",
      "single_word": false,
      "lstrip": false,
      "rstrip": false,
      "normalized": false,
      "special": true
    },
    {
      "id": 120586,
      "content": "<｜hy_place▁holder▁no▁568｜>",
      "single_word": false,
      "lstrip": false,
      "rstrip": false,
      "normalized": false,
      "special": true
    },
    {
      "id": 120587,
      "content": "<｜hy_place▁holder▁no▁569｜>",
      "single_word": false,
      "lstrip": false,
      "rstrip": false,
      "normalized": false,
      "special": true
    },
    {
      "id": 120588,
      "content": "<｜hy_place▁holder▁no▁570｜>",
      "single_word": false,
      "lstrip": false,
      "rstrip": false,
      "normalized": false,
      "special": true
    },
    {
      "id": 120589,
      "content": "<｜hy_place▁holder▁no▁571｜>",
      "single_word": false,
      "lstrip": false,
      "rstrip": false,
      "normalized": false,
      "special": true
    },
    {
      "id": 120590,
      "content": "<｜hy_place▁holder▁no▁572｜>",
      "single_word": false,
      "lstrip": false,
      "rstrip": false,
      "normalized": false,
      "special": true
    },
    {
      "id": 120591,
      "content": "<｜hy_place▁holder▁no▁573｜>",
      "single_word": false,
      "lstrip": false,
      "rstrip": false,
      "normalized": false,
      "special": true
    },
    {
      "id": 120592,
      "content": "<｜hy_place▁holder▁no▁574｜>",
      "single_word": false,
      "lstrip": false,
      "rstrip": false,
      "normalized": false,
      "special": true
    },
    {
      "id": 120593,
      "content": "<｜hy_place▁holder▁no▁575｜>",
      "single_word": false,
      "lstrip": false,
      "rstrip": false,
      "normalized": false,
      "special": true
    },
    {
      "id": 120594,
      "content": "<｜hy_place▁holder▁no▁576｜>",
      "single_word": false,
      "lstrip": false,
      "rstrip": false,
      "normalized": false,
      "special": true
    },
    {
      "id": 120595,
      "content": "<｜hy_place▁holder▁no▁577｜>",
      "single_word": false,
      "lstrip": false,
      "rstrip": false,
      "normalized": false,
      "special": true
    },
    {
      "id": 120596,
      "content": "<｜hy_place▁holder▁no▁578｜>",
      "single_word": false,
      "lstrip": false,
      "rstrip": false,
      "normalized": false,
      "special": true
    },
    {
      "id": 120597,
      "content": "<｜hy_place▁holder▁no▁579｜>",
      "single_word": false,
      "lstrip": false,
      "rstrip": false,
      "normalized": false,
      "special": true
    },
    {
      "id": 120598,
      "content": "<｜hy_place▁holder▁no▁580｜>",
      "single_word": false,
      "lstrip": false,
      "rstrip": false,
      "normalized": false,
      "special": true
    },
    {
      "id": 120599,
      "content": "<｜hy_place▁holder▁no▁581｜>",
      "single_word": false,
      "lstrip": false,
      "rstrip": false,
      "normalized": false,
      "special": true
    },
    {
      "id": 120600,
      "content": "<｜hy_place▁holder▁no▁582｜>",
      "single_word": false,
      "lstrip": false,
      "rstrip": false,
      "normalized": false,
      "special": true
    },
    {
      "id": 120601,
      "content": "<｜hy_place▁holder▁no▁583｜>",
      "single_word": false,
      "lstrip": false,
      "rstrip": false,
      "normalized": false,
      "special": true
    },
    {
      "id": 120602,
      "content": "<｜hy_place▁holder▁no▁584｜>",
      "single_word": false,
      "lstrip": false,
      "rstrip": false,
      "normalized": false,
      "special": true
    },
    {
      "id": 120603,
      "content": "<｜hy_place▁holder▁no▁585｜>",
      "single_word": false,
      "lstrip": false,
      "rstrip": false,
      "normalized": false,
      "special": true
    },
    {
      "id": 120604,
      "content": "<｜hy_place▁holder▁no▁586｜>",
      "single_word": false,
      "lstrip": false,
      "rstrip": false,
      "normalized": false,
      "special": true
    },
    {
      "id": 120605,
      "content": "<｜hy_place▁holder▁no▁587｜>",
      "single_word": false,
      "lstrip": false,
      "rstrip": false,
      "normalized": false,
      "special": true
    },
    {
      "id": 120606,
      "content": "<｜hy_place▁holder▁no▁588｜>",
      "single_word": false,
      "lstrip": false,
      "rstrip": false,
      "normalized": false,
      "special": true
    },
    {
      "id": 120607,
      "content": "<｜hy_place▁holder▁no▁589｜>",
      "single_word": false,
      "lstrip": false,
      "rstrip": false,
      "normalized": false,
      "special": true
    },
    {
      "id": 120608,
      "content": "<｜hy_place▁holder▁no▁590｜>",
      "single_word": false,
      "lstrip": false,
      "rstrip": false,
      "normalized": false,
      "special": true
    },
    {
      "id": 120609,
      "content": "<｜hy_place▁holder▁no▁591｜>",
      "single_word": false,
      "lstrip": false,
      "rstrip": false,
      "normalized": false,
      "special": true
    },
    {
      "id": 120610,
      "content": "<｜hy_place▁holder▁no▁592｜>",
      "single_word": false,
      "lstrip": false,
      "rstrip": false,
      "normalized": false,
      "special": true
    },
    {
      "id": 120611,
      "content": "<｜hy_place▁holder▁no▁593｜>",
      "single_word": false,
      "lstrip": false,
      "rstrip": false,
      "normalized": false,
      "special": true
    },
    {
      "id": 120612,
      "content": "<｜hy_place▁holder▁no▁594｜>",
      "single_word": false,
      "lstrip": false,
      "rstrip": false,
      "normalized": false,
      "special": true
    },
    {
      "id": 120613,
      "content": "<｜hy_place▁holder▁no▁595｜>",
      "single_word": false,
      "lstrip": false,
      "rstrip": false,
      "normalized": false,
      "special": true
    },
    {
      "id": 120614,
      "content": "<｜hy_place▁holder▁no▁596｜>",
      "single_word": false,
      "lstrip": false,
      "rstrip": false,
      "normalized": false,
      "special": true
    },
    {
      "id": 120615,
      "content": "<｜hy_place▁holder▁no▁597｜>",
      "single_word": false,
      "lstrip": false,
      "rstrip": false,
      "normalized": false,
      "special": true
    },
    {
      "id": 120616,
      "content": "<｜hy_place▁holder▁no▁598｜>",
      "single_word": false,
      "lstrip": false,
      "rstrip": false,
      "normalized": false,
      "special": true
    },
    {
      "id": 120617,
      "content": "<｜hy_place▁holder▁no▁599｜>",
      "single_word": false,
      "lstrip": false,
      "rstrip": false,
      "normalized": false,
      "special": true
    },
    {
      "id": 120618,
      "content": "<｜hy_place▁holder▁no▁600｜>",
      "single_word": false,
      "lstrip": false,
      "rstrip": false,
      "normalized": false,
      "special": true
    },
    {
      "id": 120619,
      "content": "<｜hy_place▁holder▁no▁601｜>",
      "single_word": false,
      "lstrip": false,
      "rstrip": false,
      "normalized": false,
      "special": true
    },
    {
      "id": 120620,
      "content": "<｜hy_place▁holder▁no▁602｜>",
      "single_word": false,
      "lstrip": false,
      "rstrip": false,
      "normalized": false,
      "special": true
    },
    {
      "id": 120621,
      "content": "<｜hy_place▁holder▁no▁603｜>",
      "single_word": false,
      "lstrip": false,
      "rstrip": false,
      "normalized": false,
      "special": true
    },
    {
      "id": 120622,
      "content": "<｜hy_place▁holder▁no▁604｜>",
      "single_word": false,
      "lstrip": false,
      "rstrip": false,
      "normalized": false,
      "special": true
    },
    {
      "id": 120623,
      "content": "<｜hy_place▁holder▁no▁605｜>",
      "single_word": false,
      "lstrip": false,
      "rstrip": false,
      "normalized": false,
      "special": true
    },
    {
      "id": 120624,
      "content": "<｜hy_place▁holder▁no▁606｜>",
      "single_word": false,
      "lstrip": false,
      "rstrip": false,
      "normalized": false,
      "special": true
    },
    {
      "id": 120625,
      "content": "<｜hy_place▁holder▁no▁607｜>",
      "single_word": false,
      "lstrip": false,
      "rstrip": false,
      "normalized": false,
      "special": true
    },
    {
      "id": 120626,
      "content": "<｜hy_place▁holder▁no▁608｜>",
      "single_word": false,
      "lstrip": false,
      "rstrip": false,
      "normalized": false,
      "special": true
    },
    {
      "id": 120627,
      "content": "<｜hy_place▁holder▁no▁609｜>",
      "single_word": false,
      "lstrip": false,
      "rstrip": false,
      "normalized": false,
      "special": true
    },
    {
      "id": 120628,
      "content": "<｜hy_place▁holder▁no▁610｜>",
      "single_word": false,
      "lstrip": false,
      "rstrip": false,
      "normalized": false,
      "special": true
    },
    {
      "id": 120629,
      "content": "<｜hy_place▁holder▁no▁611｜>",
      "single_word": false,
      "lstrip": false,
      "rstrip": false,
      "normalized": false,
      "special": true
    },
    {
      "id": 120630,
      "content": "<｜hy_place▁holder▁no▁612｜>",
      "single_word": false,
      "lstrip": false,
      "rstrip": false,
      "normalized": false,
      "special": true
    },
    {
      "id": 120631,
      "content": "<｜hy_place▁holder▁no▁613｜>",
      "single_word": false,
      "lstrip": false,
      "rstrip": false,
      "normalized": false,
      "special": true
    },
    {
      "id": 120632,
      "content": "<｜hy_place▁holder▁no▁614｜>",
      "single_word": false,
      "lstrip": false,
      "rstrip": false,
      "normalized": false,
      "special": true
    },
    {
      "id": 120633,
      "content": "<｜hy_place▁holder▁no▁615｜>",
      "single_word": false,
      "lstrip": false,
      "rstrip": false,
      "normalized": false,
      "special": true
    },
    {
      "id": 120634,
      "content": "<｜hy_place▁holder▁no▁616｜>",
      "single_word": false,
      "lstrip": false,
      "rstrip": false,
      "normalized": false,
      "special": true
    },
    {
      "id": 120635,
      "content": "<｜hy_place▁holder▁no▁617｜>",
      "single_word": false,
      "lstrip": false,
      "rstrip": false,
      "normalized": false,
      "special": true
    },
    {
      "id": 120636,
      "content": "<｜hy_place▁holder▁no▁618｜>",
      "single_word": false,
      "lstrip": false,
      "rstrip": false,
      "normalized": false,
      "special": true
    },
    {
      "id": 120637,
      "content": "<｜hy_place▁holder▁no▁619｜>",
      "single_word": false,
      "lstrip": false,
      "rstrip": false,
      "normalized": false,
      "special": true
    },
    {
      "id": 120638,
      "content": "<｜hy_place▁holder▁no▁620｜>",
      "single_word": false,
      "lstrip": false,
      "rstrip": false,
      "normalized": false,
      "special": true
    },
    {
      "id": 120639,
      "content": "<｜hy_place▁holder▁no▁621｜>",
      "single_word": false,
      "lstrip": false,
      "rstrip": false,
      "normalized": false,
      "special": true
    },
    {
      "id": 120640,
      "content": "<｜hy_place▁holder▁no▁622｜>",
      "single_word": false,
      "lstrip": false,
      "rstrip": false,
      "normalized": false,
      "special": true
    },
    {
      "id": 120641,
      "content": "<｜hy_place▁holder▁no▁623｜>",
      "single_word": false,
      "lstrip": false,
      "rstrip": false,
      "normalized": false,
      "special": true
    },
    {
      "id": 120642,
      "content": "<｜hy_place▁holder▁no▁624｜>",
      "single_word": false,
      "lstrip": false,
      "rstrip": false,
      "normalized": false,
      "special": true
    },
    {
      "id": 120643,
      "content": "<｜hy_place▁holder▁no▁625｜>",
      "single_word": false,
      "lstrip": false,
      "rstrip": false,
      "normalized": false,
      "special": true
    },
    {
      "id": 120644,
      "content": "<｜hy_place▁holder▁no▁626｜>",
      "single_word": false,
      "lstrip": false,
      "rstrip": false,
      "normalized": false,
      "special": true
    },
    {
      "id": 120645,
      "content": "<｜hy_place▁holder▁no▁627｜>",
      "single_word": false,
      "lstrip": false,
      "rstrip": false,
      "normalized": false,
      "special": true
    },
    {
      "id": 120646,
      "content": "<｜hy_place▁holder▁no▁628｜>",
      "single_word": false,
      "lstrip": false,
      "rstrip": false,
      "normalized": false,
      "special": true
    },
    {
      "id": 120647,
      "content": "<｜hy_place▁holder▁no▁629｜>",
      "single_word": false,
      "lstrip": false,
      "rstrip": false,
      "normalized": false,
      "special": true
    },
    {
      "id": 120648,
      "content": "<｜hy_place▁holder▁no▁630｜>",
      "single_word": false,
      "lstrip": false,
      "rstrip": false,
      "normalized": false,
      "special": true
    },
    {
      "id": 120649,
      "content": "<｜hy_place▁holder▁no▁631｜>",
      "single_word": false,
      "lstrip": false,
      "rstrip": false,
      "normalized": false,
      "special": true
    },
    {
      "id": 120650,
      "content": "<｜hy_place▁holder▁no▁632｜>",
      "single_word": false,
      "lstrip": false,
      "rstrip": false,
      "normalized": false,
      "special": true
    },
    {
      "id": 120651,
      "content": "<｜hy_place▁holder▁no▁633｜>",
      "single_word": false,
      "lstrip": false,
      "rstrip": false,
      "normalized": false,
      "special": true
    },
    {
      "id": 120652,
      "content": "<｜hy_place▁holder▁no▁634｜>",
      "single_word": false,
      "lstrip": false,
      "rstrip": false,
      "normalized": false,
      "special": true
    },
    {
      "id": 120653,
      "content": "<｜hy_place▁holder▁no▁635｜>",
      "single_word": false,
      "lstrip": false,
      "rstrip": false,
      "normalized": false,
      "special": true
    },
    {
      "id": 120654,
      "content": "<｜hy_place▁holder▁no▁636｜>",
      "single_word": false,
      "lstrip": false,
      "rstrip": false,
      "normalized": false,
      "special": true
    },
    {
      "id": 120655,
      "content": "<｜hy_place▁holder▁no▁637｜>",
      "single_word": false,
      "lstrip": false,
      "rstrip": false,
      "normalized": false,
      "special": true
    },
    {
      "id": 120656,
      "content": "<｜hy_place▁holder▁no▁638｜>",
      "single_word": false,
      "lstrip": false,
      "rstrip": false,
      "normalized": false,
      "special": true
    },
    {
      "id": 120657,
      "content": "<｜hy_place▁holder▁no▁639｜>",
      "single_word": false,
      "lstrip": false,
      "rstrip": false,
      "normalized": false,
      "special": true
    },
    {
      "id": 120658,
      "content": "<｜hy_place▁holder▁no▁640｜>",
      "single_word": false,
      "lstrip": false,
      "rstrip": false,
      "normalized": false,
      "special": true
    },
    {
      "id": 120659,
      "content": "<｜hy_place▁holder▁no▁641｜>",
      "single_word": false,
      "lstrip": false,
      "rstrip": false,
      "normalized": false,
      "special": true
    },
    {
      "id": 120660,
      "content": "<｜hy_place▁holder▁no▁642｜>",
      "single_word": false,
      "lstrip": false,
      "rstrip": false,
      "normalized": false,
      "special": true
    },
    {
      "id": 120661,
      "content": "<｜hy_place▁holder▁no▁643｜>",
      "single_word": false,
      "lstrip": false,
      "rstrip": false,
      "normalized": false,
      "special": true
    },
    {
      "id": 120662,
      "content": "<｜hy_place▁holder▁no▁644｜>",
      "single_word": false,
      "lstrip": false,
      "rstrip": false,
      "normalized": false,
      "special": true
    },
    {
      "id": 120663,
      "content": "<｜hy_place▁holder▁no▁645｜>",
      "single_word": false,
      "lstrip": false,
      "rstrip": false,
      "normalized": false,
      "special": true
    },
    {
      "id": 120664,
      "content": "<｜hy_place▁holder▁no▁646｜>",
      "single_word": false,
      "lstrip": false,
      "rstrip": false,
      "normalized": false,
      "special": true
    },
    {
      "id": 120665,
      "content": "<｜hy_place▁holder▁no▁647｜>",
      "single_word": false,
      "lstrip": false,
      "rstrip": false,
      "normalized": false,
      "special": true
    },
    {
      "id": 120666,
      "content": "<｜hy_place▁holder▁no▁648｜>",
      "single_word": false,
      "lstrip": false,
      "rstrip": false,
      "normalized": false,
      "special": true
    },
    {
      "id": 120667,
      "content": "<｜hy_place▁holder▁no▁649｜>",
      "single_word": false,
      "lstrip": false,
      "rstrip": false,
      "normalized": false,
      "special": true
    },
    {
      "id": 120668,
      "content": "<｜hy_place▁holder▁no▁650｜>",
      "single_word": false,
      "lstrip": false,
      "rstrip": false,
      "normalized": false,
      "special": true
    },
    {
      "id": 120669,
      "content": "<｜hy_place▁holder▁no▁651｜>",
      "single_word": false,
      "lstrip": false,
      "rstrip": false,
      "normalized": false,
      "special": true
    },
    {
      "id": 120670,
      "content": "<｜hy_place▁holder▁no▁652｜>",
      "single_word": false,
      "lstrip": false,
      "rstrip": false,
      "normalized": false,
      "special": true
    },
    {
      "id": 120671,
      "content": "<｜hy_place▁holder▁no▁653｜>",
      "single_word": false,
      "lstrip": false,
      "rstrip": false,
      "normalized": false,
      "special": true
    },
    {
      "id": 120672,
      "content": "<｜hy_place▁holder▁no▁654｜>",
      "single_word": false,
      "lstrip": false,
      "rstrip": false,
      "normalized": false,
      "special": true
    },
    {
      "id": 120673,
      "content": "<｜hy_place▁holder▁no▁655｜>",
      "single_word": false,
      "lstrip": false,
      "rstrip": false,
      "normalized": false,
      "special": true
    },
    {
      "id": 120674,
      "content": "<｜hy_place▁holder▁no▁656｜>",
      "single_word": false,
      "lstrip": false,
      "rstrip": false,
      "normalized": false,
      "special": true
    },
    {
      "id": 120675,
      "content": "<｜hy_place▁holder▁no▁657｜>",
      "single_word": false,
      "lstrip": false,
      "rstrip": false,
      "normalized": false,
      "special": true
    },
    {
      "id": 120676,
      "content": "<｜hy_place▁holder▁no▁658｜>",
      "single_word": false,
      "lstrip": false,
      "rstrip": false,
      "normalized": false,
      "special": true
    },
    {
      "id": 120677,
      "content": "<｜hy_place▁holder▁no▁659｜>",
      "single_word": false,
      "lstrip": false,
      "rstrip": false,
      "normalized": false,
      "special": true
    },
    {
      "id": 120678,
      "content": "<｜hy_place▁holder▁no▁660｜>",
      "single_word": false,
      "lstrip": false,
      "rstrip": false,
      "normalized": false,
      "special": true
    },
    {
      "id": 120679,
      "content": "<｜hy_place▁holder▁no▁661｜>",
      "single_word": false,
      "lstrip": false,
      "rstrip": false,
      "normalized": false,
      "special": true
    },
    {
      "id": 120680,
      "content": "<｜hy_place▁holder▁no▁662｜>",
      "single_word": false,
      "lstrip": false,
      "rstrip": false,
      "normalized": false,
      "special": true
    },
    {
      "id": 120681,
      "content": "<｜hy_place▁holder▁no▁663｜>",
      "single_word": false,
      "lstrip": false,
      "rstrip": false,
      "normalized": false,
      "special": true
    },
    {
      "id": 120682,
      "content": "<｜hy_place▁holder▁no▁664｜>",
      "single_word": false,
      "lstrip": false,
      "rstrip": false,
      "normalized": false,
      "special": true
    },
    {
      "id": 120683,
      "content": "<｜hy_place▁holder▁no▁665｜>",
      "single_word": false,
      "lstrip": false,
      "rstrip": false,
      "normalized": false,
      "special": true
    },
    {
      "id": 120684,
      "content": "<｜hy_place▁holder▁no▁666｜>",
      "single_word": false,
      "lstrip": false,
      "rstrip": false,
      "normalized": false,
      "special": true
    },
    {
      "id": 120685,
      "content": "<｜hy_place▁holder▁no▁667｜>",
      "single_word": false,
      "lstrip": false,
      "rstrip": false,
      "normalized": false,
      "special": true
    },
    {
      "id": 120686,
      "content": "<｜hy_place▁holder▁no▁668｜>",
      "single_word": false,
      "lstrip": false,
      "rstrip": false,
      "normalized": false,
      "special": true
    },
    {
      "id": 120687,
      "content": "<｜hy_place▁holder▁no▁669｜>",
      "single_word": false,
      "lstrip": false,
      "rstrip": false,
      "normalized": false,
      "special": true
    },
    {
      "id": 120688,
      "content": "<｜hy_place▁holder▁no▁670｜>",
      "single_word": false,
      "lstrip": false,
      "rstrip": false,
      "normalized": false,
      "special": true
    },
    {
      "id": 120689,
      "content": "<｜hy_place▁holder▁no▁671｜>",
      "single_word": false,
      "lstrip": false,
      "rstrip": false,
      "normalized": false,
      "special": true
    },
    {
      "id": 120690,
      "content": "<｜hy_place▁holder▁no▁672｜>",
      "single_word": false,
      "lstrip": false,
      "rstrip": false,
      "normalized": false,
      "special": true
    },
    {
      "id": 120691,
      "content": "<｜hy_place▁holder▁no▁673｜>",
      "single_word": false,
      "lstrip": false,
      "rstrip": false,
      "normalized": false,
      "special": true
    },
    {
      "id": 120692,
      "content": "<｜hy_place▁holder▁no▁674｜>",
      "single_word": false,
      "lstrip": false,
      "rstrip": false,
      "normalized": false,
      "special": true
    },
    {
      "id": 120693,
      "content": "<｜hy_place▁holder▁no▁675｜>",
      "single_word": false,
      "lstrip": false,
      "rstrip": false,
      "normalized": false,
      "special": true
    },
    {
      "id": 120694,
      "content": "<｜hy_place▁holder▁no▁676｜>",
      "single_word": false,
      "lstrip": false,
      "rstrip": false,
      "normalized": false,
      "special": true
    },
    {
      "id": 120695,
      "content": "<｜hy_place▁holder▁no▁677｜>",
      "single_word": false,
      "lstrip": false,
      "rstrip": false,
      "normalized": false,
      "special": true
    },
    {
      "id": 120696,
      "content": "<｜hy_place▁holder▁no▁678｜>",
      "single_word": false,
      "lstrip": false,
      "rstrip": false,
      "normalized": false,
      "special": true
    },
    {
      "id": 120697,
      "content": "<｜hy_place▁holder▁no▁679｜>",
      "single_word": false,
      "lstrip": false,
      "rstrip": false,
      "normalized": false,
      "special": true
    },
    {
      "id": 120698,
      "content": "<｜hy_place▁holder▁no▁680｜>",
      "single_word": false,
      "lstrip": false,
      "rstrip": false,
      "normalized": false,
      "special": true
    },
    {
      "id": 120699,
      "content": "<｜hy_place▁holder▁no▁681｜>",
      "single_word": false,
      "lstrip": false,
      "rstrip": false,
      "normalized": false,
      "special": true
    },
    {
      "id": 120700,
      "content": "<｜hy_place▁holder▁no▁682｜>",
      "single_word": false,
      "lstrip": false,
      "rstrip": false,
      "normalized": false,
      "special": true
    },
    {
      "id": 120701,
      "content": "<｜hy_place▁holder▁no▁683｜>",
      "single_word": false,
      "lstrip": false,
      "rstrip": false,
      "normalized": false,
      "special": true
    },
    {
      "id": 120702,
      "content": "<｜hy_place▁holder▁no▁684｜>",
      "single_word": false,
      "lstrip": false,
      "rstrip": false,
      "normalized": false,
      "special": true
    },
    {
      "id": 120703,
      "content": "<｜hy_place▁holder▁no▁685｜>",
      "single_word": false,
      "lstrip": false,
      "rstrip": false,
      "normalized": false,
      "special": true
    },
    {
      "id": 120704,
      "content": "<｜hy_place▁holder▁no▁686｜>",
      "single_word": false,
      "lstrip": false,
      "rstrip": false,
      "normalized": false,
      "special": true
    },
    {
      "id": 120705,
      "content": "<｜hy_place▁holder▁no▁687｜>",
      "single_word": false,
      "lstrip": false,
      "rstrip": false,
      "normalized": false,
      "special": true
    },
    {
      "id": 120706,
      "content": "<｜hy_place▁holder▁no▁688｜>",
      "single_word": false,
      "lstrip": false,
      "rstrip": false,
      "normalized": false,
      "special": true
    },
    {
      "id": 120707,
      "content": "<｜hy_place▁holder▁no▁689｜>",
      "single_word": false,
      "lstrip": false,
      "rstrip": false,
      "normalized": false,
      "special": true
    },
    {
      "id": 120708,
      "content": "<｜hy_place▁holder▁no▁690｜>",
      "single_word": false,
      "lstrip": false,
      "rstrip": false,
      "normalized": false,
      "special": true
    },
    {
      "id": 120709,
      "content": "<｜hy_place▁holder▁no▁691｜>",
      "single_word": false,
      "lstrip": false,
      "rstrip": false,
      "normalized": false,
      "special": true
    },
    {
      "id": 120710,
      "content": "<｜hy_place▁holder▁no▁692｜>",
      "single_word": false,
      "lstrip": false,
      "rstrip": false,
      "normalized": false,
      "special": true
    },
    {
      "id": 120711,
      "content": "<｜hy_place▁holder▁no▁693｜>",
      "single_word": false,
      "lstrip": false,
      "rstrip": false,
      "normalized": false,
      "special": true
    },
    {
      "id": 120712,
      "content": "<｜hy_place▁holder▁no▁694｜>",
      "single_word": false,
      "lstrip": false,
      "rstrip": false,
      "normalized": false,
      "special": true
    },
    {
      "id": 120713,
      "content": "<｜hy_place▁holder▁no▁695｜>",
      "single_word": false,
      "lstrip": false,
      "rstrip": false,
      "normalized": false,
      "special": true
    },
    {
      "id": 120714,
      "content": "<｜hy_place▁holder▁no▁696｜>",
      "single_word": false,
      "lstrip": false,
      "rstrip": false,
      "normalized": false,
      "special": true
    },
    {
      "id": 120715,
      "content": "<｜hy_place▁holder▁no▁697｜>",
      "single_word": false,
      "lstrip": false,
      "rstrip": false,
      "normalized": false,
      "special": true
    },
    {
      "id": 120716,
      "content": "<｜hy_place▁holder▁no▁698｜>",
      "single_word": false,
      "lstrip": false,
      "rstrip": false,
      "normalized": false,
      "special": true
    },
    {
      "id": 120717,
      "content": "<｜hy_place▁holder▁no▁699｜>",
      "single_word": false,
      "lstrip": false,
      "rstrip": false,
      "normalized": false,
      "special": true
    },
    {
      "id": 120718,
      "content": "<｜hy_place▁holder▁no▁700｜>",
      "single_word": false,
      "lstrip": false,
      "rstrip": false,
      "normalized": false,
      "special": true
    },
    {
      "id": 120719,
      "content": "<｜hy_place▁holder▁no▁701｜>",
      "single_word": false,
      "lstrip": false,
      "rstrip": false,
      "normalized": false,
      "special": true
    },
    {
      "id": 120720,
      "content": "<｜hy_place▁holder▁no▁702｜>",
      "single_word": false,
      "lstrip": false,
      "rstrip": false,
      "normalized": false,
      "special": true
    },
    {
      "id": 120721,
      "content": "<｜hy_place▁holder▁no▁703｜>",
      "single_word": false,
      "lstrip": false,
      "rstrip": false,
      "normalized": false,
      "special": true
    },
    {
      "id": 120722,
      "content": "<｜hy_place▁holder▁no▁704｜>",
      "single_word": false,
      "lstrip": false,
      "rstrip": false,
      "normalized": false,
      "special": true
    },
    {
      "id": 120723,
      "content": "<｜hy_place▁holder▁no▁705｜>",
      "single_word": false,
      "lstrip": false,
      "rstrip": false,
      "normalized": false,
      "special": true
    },
    {
      "id": 120724,
      "content": "<｜hy_place▁holder▁no▁706｜>",
      "single_word": false,
      "lstrip": false,
      "rstrip": false,
      "normalized": false,
      "special": true
    },
    {
      "id": 120725,
      "content": "<｜hy_place▁holder▁no▁707｜>",
      "single_word": false,
      "lstrip": false,
      "rstrip": false,
      "normalized": false,
      "special": true
    },
    {
      "id": 120726,
      "content": "<｜hy_place▁holder▁no▁708｜>",
      "single_word": false,
      "lstrip": false,
      "rstrip": false,
      "normalized": false,
      "special": true
    },
    {
      "id": 120727,
      "content": "<｜hy_place▁holder▁no▁709｜>",
      "single_word": false,
      "lstrip": false,
      "rstrip": false,
      "normalized": false,
      "special": true
    },
    {
      "id": 120728,
      "content": "<｜hy_place▁holder▁no▁710｜>",
      "single_word": false,
      "lstrip": false,
      "rstrip": false,
      "normalized": false,
      "special": true
    },
    {
      "id": 120729,
      "content": "<｜hy_place▁holder▁no▁711｜>",
      "single_word": false,
      "lstrip": false,
      "rstrip": false,
      "normalized": false,
      "special": true
    },
    {
      "id": 120730,
      "content": "<｜hy_place▁holder▁no▁712｜>",
      "single_word": false,
      "lstrip": false,
      "rstrip": false,
      "normalized": false,
      "special": true
    },
    {
      "id": 120731,
      "content": "<｜hy_place▁holder▁no▁713｜>",
      "single_word": false,
      "lstrip": false,
      "rstrip": false,
      "normalized": false,
      "special": true
    },
    {
      "id": 120732,
      "content": "<｜hy_place▁holder▁no▁714｜>",
      "single_word": false,
      "lstrip": false,
      "rstrip": false,
      "normalized": false,
      "special": true
    },
    {
      "id": 120733,
      "content": "<｜hy_place▁holder▁no▁715｜>",
      "single_word": false,
      "lstrip": false,
      "rstrip": false,
      "normalized": false,
      "special": true
    },
    {
      "id": 120734,
      "content": "<｜hy_place▁holder▁no▁716｜>",
      "single_word": false,
      "lstrip": false,
      "rstrip": false,
      "normalized": false,
      "special": true
    },
    {
      "id": 120735,
      "content": "<｜hy_place▁holder▁no▁717｜>",
      "single_word": false,
      "lstrip": false,
      "rstrip": false,
      "normalized": false,
      "special": true
    },
    {
      "id": 120736,
      "content": "<｜hy_place▁holder▁no▁718｜>",
      "single_word": false,
      "lstrip": false,
      "rstrip": false,
      "normalized": false,
      "special": true
    },
    {
      "id": 120737,
      "content": "<｜hy_place▁holder▁no▁719｜>",
      "single_word": false,
      "lstrip": false,
      "rstrip": false,
      "normalized": false,
      "special": true
    },
    {
      "id": 120738,
      "content": "<｜hy_place▁holder▁no▁720｜>",
      "single_word": false,
      "lstrip": false,
      "rstrip": false,
      "normalized": false,
      "special": true
    },
    {
      "id": 120739,
      "content": "<｜hy_place▁holder▁no▁721｜>",
      "single_word": false,
      "lstrip": false,
      "rstrip": false,
      "normalized": false,
      "special": true
    },
    {
      "id": 120740,
      "content": "<｜hy_place▁holder▁no▁722｜>",
      "single_word": false,
      "lstrip": false,
      "rstrip": false,
      "normalized": false,
      "special": true
    },
    {
      "id": 120741,
      "content": "<｜hy_place▁holder▁no▁723｜>",
      "single_word": false,
      "lstrip": false,
      "rstrip": false,
      "normalized": false,
      "special": true
    },
    {
      "id": 120742,
      "content": "<｜hy_place▁holder▁no▁724｜>",
      "single_word": false,
      "lstrip": false,
      "rstrip": false,
      "normalized": false,
      "special": true
    },
    {
      "id": 120743,
      "content": "<｜hy_place▁holder▁no▁725｜>",
      "single_word": false,
      "lstrip": false,
      "rstrip": false,
      "normalized": false,
      "special": true
    },
    {
      "id": 120744,
      "content": "<｜hy_place▁holder▁no▁726｜>",
      "single_word": false,
      "lstrip": false,
      "rstrip": false,
      "normalized": false,
      "special": true
    },
    {
      "id": 120745,
      "content": "<｜hy_place▁holder▁no▁727｜>",
      "single_word": false,
      "lstrip": false,
      "rstrip": false,
      "normalized": false,
      "special": true
    },
    {
      "id": 120746,
      "content": "<｜hy_place▁holder▁no▁728｜>",
      "single_word": false,
      "lstrip": false,
      "rstrip": false,
      "normalized": false,
      "special": true
    },
    {
      "id": 120747,
      "content": "<｜hy_place▁holder▁no▁729｜>",
      "single_word": false,
      "lstrip": false,
      "rstrip": false,
      "normalized": false,
      "special": true
    },
    {
      "id": 120748,
      "content": "<｜hy_place▁holder▁no▁730｜>",
      "single_word": false,
      "lstrip": false,
      "rstrip": false,
      "normalized": false,
      "special": true
    },
    {
      "id": 120749,
      "content": "<｜hy_place▁holder▁no▁731｜>",
      "single_word": false,
      "lstrip": false,
      "rstrip": false,
      "normalized": false,
      "special": true
    },
    {
      "id": 120750,
      "content": "<｜hy_place▁holder▁no▁732｜>",
      "single_word": false,
      "lstrip": false,
      "rstrip": false,
      "normalized": false,
      "special": true
    },
    {
      "id": 120751,
      "content": "<｜hy_place▁holder▁no▁733｜>",
      "single_word": false,
      "lstrip": false,
      "rstrip": false,
      "normalized": false,
      "special": true
    },
    {
      "id": 120752,
      "content": "<｜hy_place▁holder▁no▁734｜>",
      "single_word": false,
      "lstrip": false,
      "rstrip": false,
      "normalized": false,
      "special": true
    },
    {
      "id": 120753,
      "content": "<｜hy_place▁holder▁no▁735｜>",
      "single_word": false,
      "lstrip": false,
      "rstrip": false,
      "normalized": false,
      "special": true
    },
    {
      "id": 120754,
      "content": "<｜hy_place▁holder▁no▁736｜>",
      "single_word": false,
      "lstrip": false,
      "rstrip": false,
      "normalized": false,
      "special": true
    },
    {
      "id": 120755,
      "content": "<｜hy_place▁holder▁no▁737｜>",
      "single_word": false,
      "lstrip": false,
      "rstrip": false,
      "normalized": false,
      "special": true
    },
    {
      "id": 120756,
      "content": "<｜hy_place▁holder▁no▁738｜>",
      "single_word": false,
      "lstrip": false,
      "rstrip": false,
      "normalized": false,
      "special": true
    },
    {
      "id": 120757,
      "content": "<｜hy_place▁holder▁no▁739｜>",
      "single_word": false,
      "lstrip": false,
      "rstrip": false,
      "normalized": false,
      "special": true
    },
    {
      "id": 120758,
      "content": "<｜hy_place▁holder▁no▁740｜>",
      "single_word": false,
      "lstrip": false,
      "rstrip": false,
      "normalized": false,
      "special": true
    },
    {
      "id": 120759,
      "content": "<｜hy_place▁holder▁no▁741｜>",
      "single_word": false,
      "lstrip": false,
      "rstrip": false,
      "normalized": false,
      "special": true
    },
    {
      "id": 120760,
      "content": "<｜hy_place▁holder▁no▁742｜>",
      "single_word": false,
      "lstrip": false,
      "rstrip": false,
      "normalized": false,
      "special": true
    },
    {
      "id": 120761,
      "content": "<｜hy_place▁holder▁no▁743｜>",
      "single_word": false,
      "lstrip": false,
      "rstrip": false,
      "normalized": false,
      "special": true
    },
    {
      "id": 120762,
      "content": "<｜hy_place▁holder▁no▁744｜>",
      "single_word": false,
      "lstrip": false,
      "rstrip": false,
      "normalized": false,
      "special": true
    },
    {
      "id": 120763,
      "content": "<｜hy_place▁holder▁no▁745｜>",
      "single_word": false,
      "lstrip": false,
      "rstrip": false,
      "normalized": false,
      "special": true
    },
    {
      "id": 120764,
      "content": "<｜hy_place▁holder▁no▁746｜>",
      "single_word": false,
      "lstrip": false,
      "rstrip": false,
      "normalized": false,
      "special": true
    },
    {
      "id": 120765,
      "content": "<｜hy_place▁holder▁no▁747｜>",
      "single_word": false,
      "lstrip": false,
      "rstrip": false,
      "normalized": false,
      "special": true
    },
    {
      "id": 120766,
      "content": "<｜hy_place▁holder▁no▁748｜>",
      "single_word": false,
      "lstrip": false,
      "rstrip": false,
      "normalized": false,
      "special": true
    },
    {
      "id": 120767,
      "content": "<｜hy_place▁holder▁no▁749｜>",
      "single_word": false,
      "lstrip": false,
      "rstrip": false,
      "normalized": false,
      "special": true
    },
    {
      "id": 120768,
      "content": "<｜hy_place▁holder▁no▁750｜>",
      "single_word": false,
      "lstrip": false,
      "rstrip": false,
      "normalized": false,
      "special": true
    },
    {
      "id": 120769,
      "content": "<｜hy_place▁holder▁no▁751｜>",
      "single_word": false,
      "lstrip": false,
      "rstrip": false,
      "normalized": false,
      "special": true
    },
    {
      "id": 120770,
      "content": "<｜hy_place▁holder▁no▁752｜>",
      "single_word": false,
      "lstrip": false,
      "rstrip": false,
      "normalized": false,
      "special": true
    },
    {
      "id": 120771,
      "content": "<｜hy_place▁holder▁no▁753｜>",
      "single_word": false,
      "lstrip": false,
      "rstrip": false,
      "normalized": false,
      "special": true
    },
    {
      "id": 120772,
      "content": "<｜hy_place▁holder▁no▁754｜>",
      "single_word": false,
      "lstrip": false,
      "rstrip": false,
      "normalized": false,
      "special": true
    },
    {
      "id": 120773,
      "content": "<｜hy_place▁holder▁no▁755｜>",
      "single_word": false,
      "lstrip": false,
      "rstrip": false,
      "normalized": false,
      "special": true
    },
    {
      "id": 120774,
      "content": "<｜hy_place▁holder▁no▁756｜>",
      "single_word": false,
      "lstrip": false,
      "rstrip": false,
      "normalized": false,
      "special": true
    },
    {
      "id": 120775,
      "content": "<｜hy_place▁holder▁no▁757｜>",
      "single_word": false,
      "lstrip": false,
      "rstrip": false,
      "normalized": false,
      "special": true
    },
    {
      "id": 120776,
      "content": "<｜hy_place▁holder▁no▁758｜>",
      "single_word": false,
      "lstrip": false,
      "rstrip": false,
      "normalized": false,
      "special": true
    },
    {
      "id": 120777,
      "content": "<｜hy_place▁holder▁no▁759｜>",
      "single_word": false,
      "lstrip": false,
      "rstrip": false,
      "normalized": false,
      "special": true
    },
    {
      "id": 120778,
      "content": "<｜hy_place▁holder▁no▁760｜>",
      "single_word": false,
      "lstrip": false,
      "rstrip": false,
      "normalized": false,
      "special": true
    },
    {
      "id": 120779,
      "content": "<｜hy_place▁holder▁no▁761｜>",
      "single_word": false,
      "lstrip": false,
      "rstrip": false,
      "normalized": false,
      "special": true
    },
    {
      "id": 120780,
      "content": "<｜hy_place▁holder▁no▁762｜>",
      "single_word": false,
      "lstrip": false,
      "rstrip": false,
      "normalized": false,
      "special": true
    },
    {
      "id": 120781,
      "content": "<｜hy_place▁holder▁no▁763｜>",
      "single_word": false,
      "lstrip": false,
      "rstrip": false,
      "normalized": false,
      "special": true
    },
    {
      "id": 120782,
      "content": "<｜hy_place▁holder▁no▁764｜>",
      "single_word": false,
      "lstrip": false,
      "rstrip": false,
      "normalized": false,
      "special": true
    },
    {
      "id": 120783,
      "content": "<｜hy_place▁holder▁no▁765｜>",
      "single_word": false,
      "lstrip": false,
      "rstrip": false,
      "normalized": false,
      "special": true
    },
    {
      "id": 120784,
      "content": "<｜hy_place▁holder▁no▁766｜>",
      "single_word": false,
      "lstrip": false,
      "rstrip": false,
      "normalized": false,
      "special": true
    },
    {
      "id": 120785,
      "content": "<｜hy_place▁holder▁no▁767｜>",
      "single_word": false,
      "lstrip": false,
      "rstrip": false,
      "normalized": false,
      "special": true
    },
    {
      "id": 120786,
      "content": "<｜hy_place▁holder▁no▁768｜>",
      "single_word": false,
      "lstrip": false,
      "rstrip": false,
      "normalized": false,
      "special": true
    },
    {
      "id": 120787,
      "content": "<｜hy_place▁holder▁no▁769｜>",
      "single_word": false,
      "lstrip": false,
      "rstrip": false,
      "normalized": false,
      "special": true
    },
    {
      "id": 120788,
      "content": "<｜hy_place▁holder▁no▁770｜>",
      "single_word": false,
      "lstrip": false,
      "rstrip": false,
      "normalized": false,
      "special": true
    },
    {
      "id": 120789,
      "content": "<｜hy_place▁holder▁no▁771｜>",
      "single_word": false,
      "lstrip": false,
      "rstrip": false,
      "normalized": false,
      "special": true
    },
    {
      "id": 120790,
      "content": "<｜hy_place▁holder▁no▁772｜>",
      "single_word": false,
      "lstrip": false,
      "rstrip": false,
      "normalized": false,
      "special": true
    },
    {
      "id": 120791,
      "content": "<｜hy_place▁holder▁no▁773｜>",
      "single_word": false,
      "lstrip": false,
      "rstrip": false,
      "normalized": false,
      "special": true
    },
    {
      "id": 120792,
      "content": "<｜hy_place▁holder▁no▁774｜>",
      "single_word": false,
      "lstrip": false,
      "rstrip": false,
      "normalized": false,
      "special": true
    },
    {
      "id": 120793,
      "content": "<｜hy_place▁holder▁no▁775｜>",
      "single_word": false,
      "lstrip": false,
      "rstrip": false,
      "normalized": false,
      "special": true
    },
    {
      "id": 120794,
      "content": "<｜hy_place▁holder▁no▁776｜>",
      "single_word": false,
      "lstrip": false,
      "rstrip": false,
      "normalized": false,
      "special": true
    },
    {
      "id": 120795,
      "content": "<｜hy_place▁holder▁no▁777｜>",
      "single_word": false,
      "lstrip": false,
      "rstrip": false,
      "normalized": false,
      "special": true
    },
    {
      "id": 120796,
      "content": "<｜hy_place▁holder▁no▁778｜>",
      "single_word": false,
      "lstrip": false,
      "rstrip": false,
      "normalized": false,
      "special": true
    },
    {
      "id": 120797,
      "content": "<｜hy_place▁holder▁no▁779｜>",
      "single_word": false,
      "lstrip": false,
      "rstrip": false,
      "normalized": false,
      "special": true
    },
    {
      "id": 120798,
      "content": "<｜hy_place▁holder▁no▁780｜>",
      "single_word": false,
      "lstrip": false,
      "rstrip": false,
      "normalized": false,
      "special": true
    },
    {
      "id": 120799,
      "content": "<｜hy_place▁holder▁no▁781｜>",
      "single_word": false,
      "lstrip": false,
      "rstrip": false,
      "normalized": false,
      "special": true
    },
    {
      "id": 120800,
      "content": "<｜hy_place▁holder▁no▁782｜>",
      "single_word": false,
      "lstrip": false,
      "rstrip": false,
      "normalized": false,
      "special": true
    },
    {
      "id": 120801,
      "content": "<｜hy_place▁holder▁no▁783｜>",
      "single_word": false,
      "lstrip": false,
      "rstrip": false,
      "normalized": false,
      "special": true
    },
    {
      "id": 120802,
      "content": "<｜hy_place▁holder▁no▁784｜>",
      "single_word": false,
      "lstrip": false,
      "rstrip": false,
      "normalized": false,
      "special": true
    },
    {
      "id": 120803,
      "content": "<｜hy_place▁holder▁no▁785｜>",
      "single_word": false,
      "lstrip": false,
      "rstrip": false,
      "normalized": false,
      "special": true
    },
    {
      "id": 120804,
      "content": "<｜hy_place▁holder▁no▁786｜>",
      "single_word": false,
      "lstrip": false,
      "rstrip": false,
      "normalized": false,
      "special": true
    },
    {
      "id": 120805,
      "content": "<｜hy_place▁holder▁no▁787｜>",
      "single_word": false,
      "lstrip": false,
      "rstrip": false,
      "normalized": false,
      "special": true
    },
    {
      "id": 120806,
      "content": "<｜hy_place▁holder▁no▁788｜>",
      "single_word": false,
      "lstrip": false,
      "rstrip": false,
      "normalized": false,
      "special": true
    },
    {
      "id": 120807,
      "content": "<｜hy_place▁holder▁no▁789｜>",
      "single_word": false,
      "lstrip": false,
      "rstrip": false,
      "normalized": false,
      "special": true
    },
    {
      "id": 120808,
      "content": "<｜hy_place▁holder▁no▁790｜>",
      "single_word": false,
      "lstrip": false,
      "rstrip": false,
      "normalized": false,
      "special": true
    },
    {
      "id": 120809,
      "content": "<｜hy_place▁holder▁no▁791｜>",
      "single_word": false,
      "lstrip": false,
      "rstrip": false,
      "normalized": false,
      "special": true
    },
    {
      "id": 120810,
      "content": "<｜hy_place▁holder▁no▁792｜>",
      "single_word": false,
      "lstrip": false,
      "rstrip": false,
      "normalized": false,
      "special": true
    },
    {
      "id": 120811,
      "content": "<｜hy_place▁holder▁no▁793｜>",
      "single_word": false,
      "lstrip": false,
      "rstrip": false,
      "normalized": false,
      "special": true
    },
    {
      "id": 120812,
      "content": "<｜hy_place▁holder▁no▁794｜>",
      "single_word": false,
      "lstrip": false,
      "rstrip": false,
      "normalized": false,
      "special": true
    },
    {
      "id": 120813,
      "content": "<｜hy_place▁holder▁no▁795｜>",
      "single_word": false,
      "lstrip": false,
      "rstrip": false,
      "normalized": false,
      "special": true
    },
    {
      "id": 120814,
      "content": "<｜hy_place▁holder▁no▁796｜>",
      "single_word": false,
      "lstrip": false,
      "rstrip": false,
      "normalized": false,
      "special": true
    },
    {
      "id": 120815,
      "content": "<｜hy_place▁holder▁no▁797｜>",
      "single_word": false,
      "lstrip": false,
      "rstrip": false,
      "normalized": false,
      "special": true
    },
    {
      "id": 120816,
      "content": "<｜hy_place▁holder▁no▁798｜>",
      "single_word": false,
      "lstrip": false,
      "rstrip": false,
      "normalized": false,
      "special": true
    },
    {
      "id": 120817,
      "content": "<｜hy_place▁holder▁no▁799｜>",
      "single_word": false,
      "lstrip": false,
      "rstrip": false,
      "normalized": false,
      "special": true
    }
  ],
  "normalizer": {
    "type": "Sequence",
    "normalizers": []
  },
  "pre_tokenizer": {
    "type": "Sequence",
    "pretokenizers": [
      {
        "type": "Split",
        "pattern": {
          "Regex": "\\p{N}{1,3}"
        },
        "behavior": "Isolated",
        "invert": false
      },
      {
        "type": "Split",
        "pattern": {
          "Regex": "[一-龥぀-ゟ゠-ヿ]+"
        },
        "behavior": "Isolated",
        "invert": false
      },
      {
        "type": "Split",
        "pattern": {
          "Regex": "[!\"#$%&'()*+,\\-./:;<=>?@\\[\\\\\\]^_`{|}~][A-Za-z]+|[^\r\n\\p{L}\\p{P}\\p{S}]?[\\p{L}\\p{M}]+| ?[\\p{P}\\p{S}]+[\r\n]*|\\s*[\r\n]+|\\s+(?!\\S)|\\s+"
        },
        "behavior": "Isolated",
        "invert": false
      },
      {
        "type": "ByteLevel",
        "add_prefix_space": false,
        "trim_offsets": true,
        "use_regex": false
      }
    ]
  },
  "post_processor": {
    "type": "ByteLevel",
    "add_prefix_space": true,
    "trim_offsets": false,
    "use_regex": true
  },
  "decoder": {
    "type": "ByteLevel",
    "add_prefix_space": true,
    "trim_offsets": true,
    "use_regex": true
  },
  "model": {
    "type": "BPE",
    "dropout": null,
    "unk_token": null,
    "continuing_subword_prefix": null,
    "end_of_word_suffix": null,
    "fuse_unk": false,
    "byte_fallback": false,
    "ignore_merges": false,
    "vocab": {
      "!": 0,
      "\"": 1,
      "#": 2,
      "$": 3,
      "%": 4,
      "&": 5,
      "'": 6,
      "(": 7,
      ")": 8,
      "*": 9,
      "+": 10,
      ",": 11,
      "-": 12,
      ".": 13,
      "/": 14,
      "0": 15,
      "1": 16,
      "2": 17,
      "3": 18,
      "4": 19,
      "5": 20,
      "6": 21,
      "7": 22,
      "8": 23,
      "9": 24,
      ":": 25,
      ";": 26,
      "<": 27,
      "=": 28,
      ">": 29,
      "?": 30,
      "@": 31,
      "A": 32,
      "B": 33,
      "C": 34,
      "D": 35,
      "E": 36,
      "F": 37,
      "G": 38,
      "H": 39,
      "I": 40,
      "J": 41,
      "K": 42,
      "L": 43,
      "M": 44,
      "N": 45,
      "O": 46,
      "P": 47,
      "Q": 48,
      "R": 49,
      "S": 50,
      "T": 51,
      "U": 52,
      "V": 53,
      "W": 54,
      "X": 55,
      "Y": 56,
      "Z": 57,
      "[": 58,
      "\\": 59,
      "]": 60,
      "^": 61,
      "_": 62,
      "`": 63,
      "a": 64,
      "b": 65,
      "c": 66,
      "d": 67,
      "e": 68,
      "f": 69,
      "g": 70,
      "h": 71,
      "i": 72,
      "j": 73,
      "k": 74,
      "l": 75,
      "m": 76,
      "n": 77,
      "o": 78,
      "p": 79,
      "q": 80,
      "r": 81,
      "s": 82,
      "t": 83,
      "u": 84,
      "v": 85,
      "w": 86,
      "x": 87,
      "y": 88,
      "z": 89,
      "{": 90,
      "|": 91,
      "}": 92,
      "~": 93,
      "¡": 94,
      "¢": 95,
      "£": 96,
      "¤": 97,
      "¥": 98,
      "¦": 99,
      "§": 100,
      "¨": 101,
      "©": 102,
      "ª": 103,
      "«": 104,
      "¬": 105,
      "®": 106,
      "¯": 107,
      "°": 108,
      "±": 109,
      "²": 110,
      "³": 111,
      "´": 112,
      "µ": 113,
      "¶": 114,
      "·": 115,
      "¸": 116,
      "¹": 117,
      "º": 118,
      "»": 119,
      "¼": 120,
      "½": 121,
      "¾": 122,
      "¿": 123,
      "Â": 124,
      "Ã": 125,
      "Ä": 126,
      "Å": 127,
      "Æ": 128,
      "Ç": 129,
      "È": 130,
      "É": 131,
      "Ê": 132,
      "Ë": 133,
      "Ì": 134,
      "Í": 135,
      "Î": 136,
      "Ï": 137,
      "Ð": 138,
      "Ñ": 139,
      "Ò": 140,
      "Ó": 141,
      "Ô": 142,
      "Õ": 143,
      "Ö": 144,
      "×": 145,
      "Ø": 146,
      "Ù": 147,
      "Ú": 148,
      "Û": 149,
      "Ü": 150,
      "Ý": 151,
      "Þ": 152,
      "ß": 153,
      "à": 154,
      "á": 155,
      "â": 156,
      "ã": 157,
      "ä": 158,
      "å": 159,
      "æ": 160,
      "ç": 161,
      "è": 162,
      "é": 163,
      "ê": 164,
      "ë": 165,
      "ì": 166,
      "í": 167,
      "î": 168,
      "ï": 169,
      "ð": 170,
      "ñ": 171,
      "ò": 172,
      "ó": 173,
      "ô": 174,
      "Ā": 175,
      "ā": 176,
      "Ă": 177,
      "ă": 178,
      "Ą": 179,
      "ą": 180,
      "Ć": 181,
      "ć": 182,
      "Ĉ": 183,
      "ĉ": 184,
      "Ċ": 185,
      "ċ": 186,
      "Č": 187,
      "Ď": 188,
      "ď": 189,
      "Đ": 190,
      "đ": 191,
      "Ē": 192,
      "ē": 193,
      "Ĕ": 194,
      "ĕ": 195,
      "Ė": 196,
      "ė": 197,
      "Ę": 198,
      "ę": 199,
      "Ě": 200,
      "ě": 201,
      "Ĝ": 202,
      "ĝ": 203,
      "Ğ": 204,
      "ğ": 205,
      "Ġ": 206,
      "ġ": 207,
      "Ģ": 208,
      "ģ": 209,
      "Ĥ": 210,
      "ĥ": 211,
      "Ħ": 212,
      "ħ": 213,
      "Ĩ": 214,
      "ĩ": 215,
      "Ī": 216,
      "ī": 217,
      "Ĭ": 218,
      "ĭ": 219,
      "Į": 220,
      "į": 221,
      "İ": 222,
      "ı": 223,
      "Ĳ": 224,
      "ĳ": 225,
      "Ĵ": 226,
      "ĵ": 227,
      "Ķ": 228,
      "ķ": 229,
      "ĸ": 230,
      "Ĺ": 231,
      "ĺ": 232,
      "Ļ": 233,
      "ļ": 234,
      "Ľ": 235,
      "ľ": 236,
      "Ŀ": 237,
      "ŀ": 238,
      "Ł": 239,
      "ł": 240,
      "Ń": 241,
      "ĠĠ": 242,
      "Ġt": 243,
      "Ġa": 244,
      "in": 245,
      "he": 246,
      "re": 247,
      "on": 248,
      "ĠĠĠĠ": 249,
      "er": 250,
      "ä¸": 251,
      "Ġthe": 252,
      "at": 253,
      "Ġs": 254,
      "en": 255,
      "ï¼": 256,
      "Ġo": 257,
      "Ġc": 258,
      "es": 259,
      "is": 260,
      "or": 261,
      "it": 262,
      "an": 263,
      "ãĢ": 264,
      "çļ": 265,
      "al": 266,
      "çļĦ": 267,
      "Ġp": 268,
      "Ġw": 269,
      "ï¼Į": 270,
      "Ġf": 271,
      "ion": 272,
      "Ġb": 273,
      "ed": 274,
      "Ġan": 275,
      "ar": 276,
      "ing": 277,
      "Ġd": 278,
      "Ġof": 279,
      "Ġin": 280,
      "Ġm": 281,
      "le": 282,
      "ou": 283,
      "ic": 284,
      "äº": 285,
      "ĊĊ": 286,
      "Ġto": 287,
      "ro": 288,
      "Ġand": 289,
      "as": 290,
      "åı": 291,
      "ãĢĤ": 292,
      "ct": 293,
      "ä»": 294,
      "æľ": 295,
      "åħ": 296,
      "ent": 297,
      "et": 298,
      "ĠĠĠĠĠĠĠĠ": 299,
      "ĠĠĠ": 300,
      "Ġth": 301,
      "Ġn": 302,
      "st": 303,
      "Ġre": 304,
      "Ġe": 305,
      "åĪ": 306,
      "Ġh": 307,
      "âĢ": 308,
      "å®": 309,
      "om": 310,
      "el": 311,
      "è¿": 312,
      "å¤": 313,
      "Ġl": 314,
      "ä½": 315,
      "Ġis": 316,
      "il": 317,
      "çĶ": 318,
      "æĺ": 319,
      "ra": 320,
      "im": 321,
      "åĲ": 322,
      "ol": 323,
      "Ġ=": 324,
      "ut": 325,
      "id": 326,
      "ĠT": 327,
      "åľ": 328,
      "ve": 329,
      "ç»": 330,
      "ation": 331,
      "ãĢģ": 332,
      "us": 333,
      "ot": 334,
      "åĬ": 335,
      "Ġg": 336,
      "æĪ": 337,
      "ig": 338,
      "ur": 339,
      "ce": 340,
      "Ġ(": 341,
      "æĺ¯": 342,
      "Ġ\\": 343,
      "æĸ": 344,
      "am": 345,
      "è¯": 346,
      "ow": 347,
      "åĽ": 348,
      "ch": 349,
      "ä¹": 350,
      "un": 351,
      "ul": 352,
      "ĠS": 353,
      "ä¸Ģ": 354,
      "ĠA": 355,
      "Ġfor": 356,
      "Ġst": 357,
      "ly": 358,
      ".Ċ": 359,
      "ĠI": 360,
      "if": 361,
      "Ġbe": 362,
      "åŃ": 363,
      "å°": 364,
      "æķ": 365,
      "è®": 366,
      "æĹ": 367,
      "ĠC": 368,
      "Ġthat": 369,
      "ver": 370,
      "od": 371,
      "å¹": 372,
      "ãĢĤĊ": 373,
      "ad": 374,
      "se": 375,
      "Ġy": 376,
      "Ġon": 377,
      "ä¼": 378,
      "um": 379,
      "Ġcon": 380,
      "éĢ": 381,
      "åº": 382,
      "ir": 383,
      "åį": 384,
      "è¡": 385,
      "ith": 386,
      "ate": 387,
      "æľī": 388,
      "åľ¨": 389,
      "æĿ": 390,
      "Ġpro": 391,
      "qu": 392,
      "æī": 393,
      "ag": 394,
      "ay": 395,
      "Ġv": 396,
      "Ġ-": 397,
      "éĩ": 398,
      "å¼": 399,
      "ä¸į": 400,
      ";Ċ": 401,
      "Ġas": 402,
      "ä¸º": 403,
      "em": 404,
      "ter": 405,
      "å¯": 406,
      "åĴ": 407,
      "ĠĠĠĠĠĠĠ": 408,
      "ä¸Ń": 409,
      "è§": 410,
      "åĩ": 411,
      ".ĊĊ": 412,
      "Ġwith": 413,
      "äºº": 414,
      "åĨ": 415,
      "ri": 416,
      "åĮ": 417,
      "est": 418,
      "åĴĮ": 419,
      "èĢ": 420,
      "ab": 421,
      "çĽ": 422,
      "Ġit": 423,
      "ĠThe": 424,
      "--": 425,
      "Ġde": 426,
      "ist": 427,
      "å¸": 428,
      "å·": 429,
      "æĢ": 430,
      "Ġare": 431,
      "ĠP": 432,
      "ä»¥": 433,
      "ĠM": 434,
      "res": 435,
      "pe": 436,
      "os": 437,
      "Ġal": 438,
      "00": 439,
      "å¾": 440,
      "her": 441,
      "èĥ": 442,
      "æł": 443,
      "Ġyou": 444,
      "Ġor": 445,
      "Ġex": 446,
      "iv": 447,
      "Ġwh": 448,
      "ä¸ª": 449,
      "ess": 450,
      "è´": 451,
      "ction": 452,
      "th": 453,
      "ç§": 454,
      "ĠB": 455,
      "ers": 456,
      "ment": 457,
      "Ġcom": 458,
      "Ġwe": 459,
      "ac": 460,
      "æ³": 461,
      "æŃ": 462,
      "çŃ": 463,
      "pt": 464,
      "æĬ": 465,
      "ĠD": 466,
      "çİ": 467,
      "pl": 468,
      "te": 469,
      "äºĨ": 470,
      "¦ģ": 471,
      "æ°": 472,
      "å½": 473,
      "çĶ¨": 474,
      "Ġ$": 475,
      "and": 476,
      "è¦ģ": 477,
      "Ġ\"": 478,
      "æĶ": 479,
      "oc": 480,
      "ore": 481,
      "ity": 482,
      "igh": 483,
      "nt": 484,
      "æŀ": 485,
      "çĶŁ": 486,
      "çī": 487,
      "Ġus": 488,
      "op": 489,
      "éĻ": 490,
      "rom": 491,
      "ĠĠĠĠĠĠĠĠĠĠĠĠĠĠĠĠ": 492,
      "Ġby": 493,
      "Ġr": 494,
      "Ġne": 495,
      "Ġ+": 496,
      "ort": 497,
      "ain": 498,
      "ld": 499,
      "æĹ¶": 500,
      "å±": 501,
      "Ġsu": 502,
      "**": 503,
      "ï¼ļ": 504,
      "åı¯": 505,
      "ĠR": 506,
      "âĢľ": 507,
      "Ġ{": 508,
      "éĹ": 509,
      "Ġse": 510,
      "ĠW": 511,
      "Âł": 512,
      "åİ": 513,
      "å¤§": 514,
      "âĢĿ": 515,
      "ke": 516,
      "ill": 517,
      "ĠH": 518,
      "20": 519,
      "çº": 520,
      "ĠE": 521,
      "æİ": 522,
      "ĠF": 523,
      "åŃ¦": 524,
      "èĥ½": 525,
      "ä¿": 526,
      "è¿Ļ": 527,
      "ive": 528,
      "èµ": 529,
      "ant": 530,
      "Ġhe": 531,
      "éĿ": 532,
      "end": 533,
      "nd": 534,
      "çĲ": 535,
      "äºİ": 536,
      "è¡Į": 537,
      "ä¸Ĭ": 538,
      "Ġcan": 539,
      "pp": 540,
      "é¢": 541,
      "å¿": 542,
      "ies": 543,
      "åĳ": 544,
      "å¯¹": 545,
      "art": 546,
      "æķ°": 547,
      "èĩ": 548,
      "Ġthis": 549,
      "og": 550,
      "æĸ¹": 551,
      "Ġat": 552,
      "éĥ": 553,
      "ĠL": 554,
      "ine": 555,
      "ight": 556,
      "Ġha": 557,
      "åıĳ": 558,
      "ect": 559,
      "åĪĨ": 560,
      "ial": 561,
      "Ġfrom": 562,
      "ud": 563,
      "æĪĳ": 564,
      "ĠN": 565,
      "Ġch": 566,
      "ure": 567,
      "åĽ½": 568,
      "rac": 569,
      "ä¼ļ": 570,
      "ä½ľ": 571,
      "ue": 572,
      "è¾": 573,
      "Ġsh": 574,
      "Ġnot": 575,
      "æµ": 576,
      "é¡": 577,
      "age": 578,
      "æ¯": 579,
      "ass": 580,
      "Ġun": 581,
      "æĪĲ": 582,
      "iz": 583,
      ")Ċ": 584,
      "å¹´": 585,
      "çĲĨ": 586,
      "æ²": 587,
      "ĠG": 588,
      "å¥": 589,
      "æĮ": 590,
      "Ġle": 591,
      ":Ċ": 592,
      "æ³ķ": 593,
      "åĪ°": 594,
      "èĤ": 595,
      "å®ļ": 596,
      "åĩº": 597,
      "per": 598,
      "ä¸ļ": 599,
      "all": 600,
      "ge": 601,
      "ould": 602,
      "ç®": 603,
      ");Ċ": 604,
      "10": 605,
      "ult": 606,
      "Ġ`": 607,
      "}{": 608,
      "ame": 609,
      "ie": 610,
      "ical": 611,
      "ä»¬": 612,
      "ich": 613,
      "Ġ{Ċ": 614,
      "imp": 615,
      "æĢ§": 616,
      "Ġwas": 617,
      "è½": 618,
      "Ġhave": 619,
      "å¦": 620,
      "frac": 621,
      ",Ċ": 622,
      "ä½ĵ": 623,
      "ç¨": 624,
      "âĢĻ": 625,
      "ans": 626,
      "our": 627,
      "The": 628,
      "åĬ¨": 629,
      "ub": 630,
      "red": 631,
      "int": 632,
      "Ġk": 633,
      "æĦ": 634,
      "ä¾": 635,
      "cl": 636,
      "Ġ}": 637,
      "ä¸ĭ": 638,
      "xt": 639,
      "Ġcl": 640,
      "åŁ": 641,
      "ell": 642,
      "à¸": 643,
      "æĥ": 644,
      "ble": 645,
      "å·¥": 646,
      "ff": 647,
      "19": 648,
      "orm": 649,
      "æĿ¥": 650,
      "çŃī": 651,
      "è¿ĩ": 652,
      "act": 653,
      "out": 654,
      "ost": 655,
      "æĭ": 656,
      "åĵ": 657,
      "ind": 658,
      "æ±": 659,
      "æīĢ": 660,
      "ated": 661,
      "----": 662,
      "åľ°": 663,
      "rou": 664,
      "'s": 665,
      "ap": 666,
      "__": 667,
      "å®ŀ": 668,
      "ust": 669,
      "è¿Ľ": 670,
      "éĺ": 671,
      "çĤ": 672,
      "çİ°": 673,
      "ide": 674,
      "Ġres": 675,
      "ak": 676,
      "åĲİ": 677,
      "ĠO": 678,
      "ase": 679,
      "Ġcomp": 680,
      "åĮĸ": 681,
      "Ġif": 682,
      "ber": 683,
      "ä¸İ": 684,
      "æį": 685,
      "//": 686,
      "ç«": 687,
      "åĲĪ": 688,
      "ç¬": 689,
      "å¤ļ": 690,
      "up": 691,
      "åĢ": 692,
      "urn": 693,
      "Ġint": 694,
      "åĲĮ": 695,
      "ard": 696,
      "Ġen": 697,
      "åĽł": 698,
      "åī": 699,
      "able": 700,
      "ip": 701,
      "ome": 702,
      "du": 703,
      "åºĶ": 704,
      "ĠÐ": 705,
      "é«": 706,
      "Ġ<": 707,
      "Ġad": 708,
      "cc": 709,
      "Ġwhe": 710,
      "é¡¹": 711,
      "Ġ*": 712,
      "Ġpl": 713,
      "æı": 714,
      "å¦Ĥ": 715,
      "con": 716,
      "çľ": 717,
      "é«ĺ": 718,
      "éĿ¢": 719,
      "éķ": 720,
      "åħ¶": 721,
      "åħ¬": 722,
      "ĠĠĠĠĠĠĠĠĠĠĠ": 723,
      "ther": 724,
      "åº¦": 725,
      "der": 726,
      "ions": 727,
      "æŁ": 728,
      "Ġab": 729,
      "åħ³": 730,
      "æ¬": 731,
      "æľ¬": 732,
      "ç¡": 733,
      "çĹ": 734,
      "Ġwhich": 735,
      "èĩª": 736,
      "ç»ı": 737,
      "Ġcont": 738,
      "Ġdo": 739,
      "ĠJ": 740,
      "åģ": 741,
      "éģ": 742,
      "ĠU": 743,
      "äº§": 744,
      "Ġwor": 745,
      "Ġj": 746,
      "ãģ": 747,
      "ç½": 748,
      "æ¡": 749,
      "ile": 750,
      "ere": 751,
      "ations": 752,
      "ä¸»": 753,
      "ack": 754,
      "ress": 755,
      "Ġall": 756,
      "éĢļ": 757,
      "ï¼ī": 758,
      "ast": 759,
      "åĬĽ": 760,
      "are": 761,
      "åħ¨": 762,
      "æ´": 763,
      "ï¼Ī": 764,
      "ime": 765,
      "ĠIn": 766,
      "de": 767,
      "ang": 768,
      "av": 769,
      "ign": 770,
      "gh": 771,
      "åŃĲ": 772,
      "..": 773,
      "ru": 774,
      "ach": 775,
      "çŁ": 776,
      "ary": 777,
      "éĥ¨": 778,
      "Ġ\\(": 779,
      "()": 780,
      "éĢī": 781,
      "å¾Ĺ": 782,
      "èĢĮ": 783,
      "å®¶": 784,
      "å°ı": 785,
      "èĢħ": 786,
      "éĩı": 787,
      "æ¸": 788,
      "ç¤": 789,
      "ice": 790,
      "ia": 791,
      "ong": 792,
      "ance": 793,
      "Ġtr": 794,
      "ç¨ĭ": 795,
      "ata": 796,
      "Ġret": 797,
      "Ġqu": 798,
      "ous": 799,
      "ä¹ĭ": 800,
      "çī©": 801,
      "ĠĠĠĠĠ": 802,
      "å°±": 803,
      "ç³": 804,
      "Ġhas": 805,
      "éĩį": 806,
      "Ġdis": 807,
      "åĨħ": 808,
      "åĪ¶": 809,
      "å¼ı": 810,
      "Ġme": 811,
      "è§£": 812,
      "ä¹Ł": 813,
      "12": 814,
      "éķ¿": 815,
      "ents": 816,
      "ä»ĸ": 817,
      "çĤ¹": 818,
      "æĪĳä»¬": 819,
      "Ġar": 820,
      "ok": 821,
      "åı¯ä»¥": 822,
      "Ġwill": 823,
      "åĬł": 824,
      "Ġper": 825,
      "),": 826,
      "è°": 827,
      "è®¾": 828,
      "æľº": 829,
      "å»": 830,
      "ence": 831,
      "è·": 832,
      "æĪĸ": 833,
      "ace": 834,
      "ä¿Ŀ": 835,
      "ph": 836,
      "çĸ": 837,
      "ath": 838,
      "ä¸Ģä¸ª": 839,
      "Ġyour": 840,
      "Ð¾": 841,
      "å¢": 842,
      "ç¬¬": 843,
      "Ġfun": 844,
      "201": 845,
      "ring": 846,
      "form": 847,
      "ĠTh": 848,
      "so": 849,
      "æĽ": 850,
      "éĹ´": 851,
      "çĽ¸": 852,
      "ire": 853,
      "ep": 854,
      "ĠâĢ": 855,
      "åĿ": 856,
      "Ġimp": 857,
      "ition": 858,
      "Ġtheir": 859,
      "æĸĩ": 860,
      "one": 861,
      "æŃ£": 862,
      "ç±": 863,
      "æĸ°": 864,
      "éľ": 865,
      "ç§į": 866,
      "Ġ|": 867,
      "å¼Ģ": 868,
      "ens": 869,
      "vel": 870,
      "é¢ĺ": 871,
      "ject": 872,
      "é£": 873,
      "get": 874,
      "``": 875,
      "æıĲ": 876,
      "ual": 877,
      "æ¶": 878,
      "å¿ĥ": 879,
      "Ð°": 880,
      "Ġnum": 881,
      "ory": 882,
      "Ġbut": 883,
      "ft": 884,
      "è¡¨": 885,
      "ount": 886,
      "äºĭ": 887,
      "çĶµ": 888,
      "æŀľ": 889,
      "Ġthey": 890,
      "ite": 891,
      "ç®¡": 892,
      "ne": 893,
      "åıĬ": 894,
      "Ġval": 895,
      "æ¡Ī": 896,
      "å½ĵ": 897,
      "eth": 898,
      "}$": 899,
      ">Ċ": 900,
      "Ġreturn": 901,
      "ä½į": 902,
      "wer": 903,
      "Ġout": 904,
      "æľĢ": 905,
      "lo": 906,
      "æľŁ": 907,
      "low": 908,
      "ç¡®": 909,
      "ear": 910,
      "Ġsy": 911,
      "Ġmore": 912,
      "ä½¿": 913,
      ").": 914,
      "ord": 915,
      "æ°´": 916,
      "åħ¥": 917,
      "ç³»": 918,
      "è¶": 919,
      "è®¡": 920,
      "å¹³": 921,
      "æį®": 922,
      "Ġman": 923,
      "éļ": 924,
      "ry": 925,
      "Ġone": 926,
      "å»º": 927,
      "^{": 928,
      "ä¸ī": 929,
      "æĦı": 930,
      "åĬ¡": 931,
      "éĽ": 932,
      "ption": 933,
      "å°Ĩ": 934,
      "ose": 935,
      "Ġother": 936,
      "In": 937,
      "èµĦ": 938,
      "éĶ": 939,
      "ake": 940,
      "erm": 941,
      "å¸¸": 942,
      "æĥħ": 943,
      "iff": 944,
      "Ġ'": 945,
      "ors": 946,
      "ution": 947,
      "ail": 948,
      "æķĻ": 949,
      "Ġso": 950,
      "å¹¶": 951,
      "15": 952,
      "elf": 953,
      "å±ķ": 954,
      "lic": 955,
      "çĿ": 956,
      "cre": 957,
      "Ġfunction": 958,
      "åīį": 959,
      "ç´": 960,
      "æ°ĳ": 961,
      "å½¢": 962,
      "ĠSt": 963,
      "Ġgo": 964,
      "èĬ": 965,
      "ely": 966,
      "å¸Ĥ": 967,
      "æŃ¤": 968,
      "ates": 969,
      "ç©": 970,
      "ater": 971,
      "èī": 972,
      "ĠV": 973,
      "å¥½": 974,
      "ĉĉ": 975,
      "çĦ": 976,
      "ãĢĤĊĊ": 977,
      "ĠK": 978,
      "200": 979,
      "Ðµ": 980,
      "aus": 981,
      "èģ": 982,
      ";ĊĊ": 983,
      "ks": 984,
      "ound": 985,
      "çł": 986,
      "æĹ¥": 987,
      "Ġli": 988,
      "Ġev": 989,
      "Ġnew": 990,
      "éľĢ": 991,
      "Ġte": 992,
      "Ġpart": 993,
      "ç»ĵ": 994,
      "Ġsp": 995,
      "ns": 996,
      "Ġspe": 997,
      "Ġ[": 998,
      "_{": 999,
      "æĺİ": 1000,
      "éħ": 1001,
      "ces": 1002,
      "éĥ½": 1003,
      "com": 1004,
      "ä»£": 1005,
      "æİ¥": 1006,
      "row": 1007,
      "åĵģ": 1008,
      "stem": 1009,
      "ode": 1010,
      "ys": 1011,
      "æģ": 1012,
      "11": 1013,
      "ype": 1014,
      ":ĊĊ": 1015,
      "æĻ": 1016,
      "Ġup": 1017,
      "ä»İ": 1018,
      "Ĥ£": 1019,
      "çĽ®": 1020,
      "Ġalso": 1021,
      "\\[": 1022,
      "æľĪ": 1023,
      "Ġwere": 1024,
      "Ġx": 1025,
      "irst": 1026,
      "Ġob": 1027,
      "è§Ħ": 1028,
      "Ġshould": 1029,
      "Ġsc": 1030,
      "ree": 1031,
      "we": 1032,
      "çĻ": 1033,
      "åŁº": 1034,
      "Ġpre": 1035,
      "æ¬¡": 1036,
      "put": 1037,
      "18": 1038,
      "äºĮ": 1039,
      "erv": 1040,
      "å¤ĸ": 1041,
      "ï¼Ľ": 1042,
      "ä»¶": 1043,
      "Ġdiff": 1044,
      "åİŁ": 1045,
      "Ð¸": 1046,
      "æ¯Ķ": 1047,
      "ari": 1048,
      "å®ī": 1049,
      "Ġpr": 1050,
      "ram": 1051,
      "Ø§": 1052,
      "æ±Ĥ": 1053,
      "Ġclass": 1054,
      "ll": 1055,
      "åĮº": 1056,
      "ç¼": 1057,
      "ific": 1058,
      "çĶ±": 1059,
      "ä¿¡": 1060,
      "è¯´": 1061,
      "Ġcomm": 1062,
      "own": 1063,
      "St": 1064,
      "very": 1065,
      "ç¾": 1066,
      "åĪ©": 1067,
      "è´¨": 1068,
      "ä¸¤": 1069,
      "æĶ¿": 1070,
      "iew": 1071,
      "ib": 1072,
      "ild": 1073,
      "ook": 1074,
      "èį": 1075,
      "cess": 1076,
      "çĦ¶": 1077,
      "æłĩ": 1078,
      "Ġinto": 1079,
      "Ġits": 1080,
      "clud": 1081,
      "16": 1082,
      "å§": 1083,
      "çķ": 1084,
      "Ġuse": 1085,
      "]ĊĊ": 1086,
      "lect": 1087,
      "å¤©": 1088,
      "Ġneed": 1089,
      "wo": 1090,
      "çĹħ": 1091,
      "çŃĶ": 1092,
      "åıĺ": 1093,
      "åĳĺ": 1094,
      "?Ċ": 1095,
      "reat": 1096,
      "èĦ": 1097,
      "åĢ¼": 1098,
      "$$": 1099,
      "imes": 1100,
      "æ´»": 1101,
      "Ġ.": 1102,
      "è¢": 1103,
      "Ġ//": 1104,
      "vers": 1105,
      "text": 1106,
      "åħĥ": 1107,
      "æĹł": 1108,
      "amp": 1109,
      "èĭ": 1110,
      "ä½Ĩ": 1111,
      "Ġform": 1112,
      "ãĢĭ": 1113,
      "å¯¼": 1114,
      "éĹ®": 1115,
      "ient": 1116,
      "ãĢĬ": 1117,
      "ç»Ħ": 1118,
      "Ġwhen": 1119,
      "Ġdef": 1120,
      "Ġabout": 1121,
      "éĢīé¡¹": 1122,
      "rib": 1123,
      "éģĵ": 1124,
      "ize": 1125,
      "Ġthere": 1126,
      "Ġtime": 1127,
      "èĲ": 1128,
      "Ġdes": 1129,
      "æĽ´": 1130,
      "ĠY": 1131,
      "ove": 1132,
      "Ġbet": 1133,
      "Ġthan": 1134,
      "ĠIt": 1135,
      "Ġget": 1136,
      "lement": 1137,
      "ç²": 1138,
      "pon": 1139,
      "--------": 1140,
      "çº¿": 1141,
      "Ġcol": 1142,
      "ublic": 1143,
      "ener": 1144,
      "èµ·": 1145,
      "çĥ": 1146,
      "ric": 1147,
      "Ð½": 1148,
      "}\\": 1149,
      "çī¹": 1150,
      "äºĽ": 1151,
      "Ġsol": 1152,
      "ĠThis": 1153,
      "çŁ¥": 1154,
      "æ²»": 1155,
      "å¤Ħ": 1156,
      "éª": 1157,
      "oint": 1158,
      "Ġacc": 1159,
      "Ġinter": 1160,
      "éĩĳ": 1161,
      "åĲĳ": 1162,
      "Ġro": 1163,
      "(\"": 1164,
      "Ġsome": 1165,
      "Ġnumber": 1166,
      "è¿ĺ": 1167,
      "ÂłÂł": 1168,
      "ÑĤ": 1169,
      "è¿Ľè¡Į": 1170,
      "ally": 1171,
      "hat": 1172,
      "==": 1173,
      "13": 1174,
      "åįķ": 1175,
      "åŀ": 1176,
      "Ġfe": 1177,
      "Ġset": 1178,
      "éĴ": 1179,
      "14": 1180,
      "Ġsub": 1181,
      "ng": 1182,
      "ays": 1183,
      "rit": 1184,
      "ish": 1185,
      "ĠĠĠĠĠĠĠĠĠĠĠĠĠĠĠĠĠĠĠĠĠĠĠĠĠĠĠĠĠĠĠĠ": 1186,
      "ert": 1187,
      "Ġem": 1188,
      "Ġadd": 1189,
      "æľ¯": 1190,
      "ethod": 1191,
      "Ġmay": 1192,
      "ĠĊ": 1193,
      "ĠĠĠĠĠĠĠĠĠĠĠĠĠĠĠ": 1194,
      "å·¥ä½ľ": 1195,
      "Ġmod": 1196,
      "Ġover": 1197,
      "}Ċ": 1198,
      "Ġrep": 1199,
      "æł¹": 1200,
      "Ġass": 1201,
      "Ġ&": 1202,
      "olog": 1203,
      "25": 1204,
      "åľº": 1205,
      "Ġpos": 1206,
      "Ġhis": 1207,
      "ative": 1208,
      "çĿĢ": 1209,
      "ex": 1210,
      "æĮĩ": 1211,
      "Ġwho": 1212,
      "Ġfol": 1213,
      "Ġthem": 1214,
      "ÑĢ": 1215,
      "ç»Ł": 1216,
      "æ·": 1217,
      "ov": 1218,
      "##": 1219,
      "è¢«": 1220,
      "\",": 1221,
      "Ġpe": 1222,
      "Ġi": 1223,
      "ç¥": 1224,
      "æĿ¡": 1225,
      "blem": 1226,
      "ax": 1227,
      "Ġthese": 1228,
      "]Ċ": 1229,
      "Ġtwo": 1230,
      "ont": 1231,
      "Ġany": 1232,
      "Ġstud": 1233,
      "Ġag": 1234,
      "les": 1235,
      "Ġno": 1236,
      "å¢ŀ": 1237,
      "Ġcons": 1238,
      "ä¹Ī": 1239,
      "rt": 1240,
      "ĠCh": 1241,
      "ings": 1242,
      "Ġexp": 1243,
      "Ġhow": 1244,
      "ä»»": 1245,
      "Ġdiffere": 1246,
      "ç±»": 1247,
      "Ġfirst": 1248,
      "=\"": 1249,
      "ause": 1250,
      "å°ĳ": 1251,
      "Ġ}Ċ": 1252,
      "ck": 1253,
      "Ġwork": 1254,
      "Ġwould": 1255,
      "è°ĥ": 1256,
      "è¯ģ": 1257,
      "é¦": 1258,
      "30": 1259,
      "Ġequ": 1260,
      "çĽ´": 1261,
      "Ġim": 1262,
      "ç«ĭ": 1263,
      "ä½ł": 1264,
      "åħ·": 1265,
      "fore": 1266,
      "æĮģ": 1267,
      "ular": 1268,
      "ange": 1269,
      "æķĪ": 1270,
      "ãĤ": 1271,
      "äº¤": 1272,
      "Ġam": 1273,
      "Ġrel": 1274,
      "çģ": 1275,
      "æ°Ķ": 1276,
      "Ñģ": 1277,
      "èĪ": 1278,
      "å¼º": 1279,
      "Ġprodu": 1280,
      "Ġapp": 1281,
      "åı¸": 1282,
      "æº": 1283,
      "åĪĻ": 1284,
      "Ġsystem": 1285,
      "Ġdata": 1286,
      "Ġspec": 1287,
      "æ£": 1288,
      "ating": 1289,
      "ç§ĳ": 1290,
      "</": 1291,
      "ian": 1292,
      "çĬ": 1293,
      "æµģ": 1294,
      "Ġkn": 1295,
      "éľĢè¦ģ": 1296,
      "Ġsa": 1297,
      "Ġact": 1298,
      "çŃĶæ¡Ī": 1299,
      "ied": 1300,
      "æĶ¶": 1301,
      "ç¤¾": 1302,
      "ruct": 1303,
      "èĢĥ": 1304,
      "Ġfollow": 1305,
      "ough": 1306,
      "âĢĶ": 1307,
      "æł·": 1308,
      "Ġtra": 1309,
      "éĵ": 1310,
      "Ġbec": 1311,
      "Ġap": 1312,
      "åıĸ": 1313,
      "è¿Ĳ": 1314,
      "ĠâĢľ": 1315,
      "ob": 1316,
      "Ġused": 1317,
      "Ã©": 1318,
      "Ġreg": 1319,
      "Ġ/": 1320,
      "ility": 1321,
      "æ®": 1322,
      "ible": 1323,
      "ool": 1324,
      "ock": 1325,
      "ink": 1326,
      "æĬĢ": 1327,
      "Ġbeen": 1328,
      "Ġprov": 1329,
      "ics": 1330,
      "right": 1331,
      "iss": 1332,
      "oth": 1333,
      "ds": 1334,
      "ç¤º": 1335,
      "->": 1336,
      "éĩĮ": 1337,
      "Ġmethod": 1338,
      "åıĳå±ķ": 1339,
      "ps": 1340,
      "æ¯ı": 1341,
      "Ġì": 1342,
      "Ġph": 1343,
      "æŀĦ": 1344,
      "æĦŁ": 1345,
      "Ġeach": 1346,
      "Ð¾Ð": 1347,
      "ffect": 1348,
      "åĲį": 1349,
      "ark": 1350,
      "Ġconst": 1351,
      "åħĪ": 1352,
      "Ġind": 1353,
      "Ġra": 1354,
      "ä»·": 1355,
      "ract": 1356,
      "Ġsuch": 1357,
      "Ġunder": 1358,
      "ise": 1359,
      "è½¦": 1360,
      "æŁ¥": 1361,
      ")ĊĊ": 1362,
      "Ġyear": 1363,
      "Ġvalue": 1364,
      "ÙĦ": 1365,
      "che": 1366,
      "æ»": 1367,
      "åĲĦ": 1368,
      "ull": 1369,
      "Ġonly": 1370,
      "ween": 1371,
      "åķ": 1372,
      "100": 1373,
      "17": 1374,
      "ä¹ī": 1375,
      "ople": 1376,
      "èº": 1377,
      "ĠRe": 1378,
      "æīĭ": 1379,
      "its": 1380,
      "å®ĥ": 1381,
      "åĮ»": 1382,
      "estion": 1383,
      "Ġtrans": 1384,
      "Ġwhat": 1385,
      "ues": 1386,
      "åŀĭ": 1387,
      "val": 1388,
      "rough": 1389,
      "ased": 1390,
      "ick": 1391,
      "è·¯": 1392,
      "æīĢä»¥": 1393,
      "fter": 1394,
      "çľĭ": 1395,
      "pect": 1396,
      "æľį": 1397,
      "Ġresult": 1398,
      "æ²¡": 1399,
      "éĢļè¿ĩ": 1400,
      "éĹ®é¢ĺ": 1401,
      "Ġthen": 1402,
      "å·²": 1403,
      "Ġrec": 1404,
      "ç®Ĺ": 1405,
      "oid": 1406,
      "iel": 1407,
      "ss": 1408,
      "å£": 1409,
      "åħ±": 1410,
      "åģļ": 1411,
      "æĢ»": 1412,
      "ced": 1413,
      "ä¸ŃåĽ½": 1414,
      "è£": 1415,
      "_t": 1416,
      "æĿĥ": 1417,
      "Ġbetween": 1418,
      "Ġfind": 1419,
      "ç®¡çĲĨ": 1420,
      "::": 1421,
      "Ġdi": 1422,
      "çİĩ": 1423,
      "åĸ": 1424,
      "éĻ¢": 1425,
      "èĻ": 1426,
      "Ġhad": 1427,
      "åıĹ": 1428,
      "èĤ²": 1429,
      "als": 1430,
      "Ġusing": 1431,
      ".s": 1432,
      "èĮ": 1433,
      "Pro": 1434,
      "Ġinclud": 1435,
      "åħ¬åı¸": 1436,
      "ä½¿çĶ¨": 1437,
      "```": 1438,
      "è¯¥": 1439,
      "åĪ«": 1440,
      "ç´ł": 1441,
      "Ġrem": 1442,
      "ï¼Ł": 1443,
      "yp": 1444,
      "èº«": 1445,
      "Ġrequ": 1446,
      "Ġlike": 1447,
      "Ġwhere": 1448,
      "é£İ": 1449,
      "å¦Ĥæŀľ": 1450,
      "åĻ": 1451,
      "ä¼ł": 1452,
      "åİ»": 1453,
      "å¸Ī": 1454,
      "ç¦": 1455,
      "50": 1456,
      "è¿Ļä¸ª": 1457,
      "ä¼ģ": 1458,
      "ities": 1459,
      "åįģ": 1460,
      "ample": 1461,
      "____": 1462,
      "åĮħ": 1463,
      "å¾Ī": 1464,
      "Ġco": 1465,
      "Ġpar": 1466,
      "plic": 1467,
      "åı¯èĥ½": 1468,
      "åı£": 1469,
      "inal": 1470,
      "çĪ": 1471,
      "æķ´": 1472,
      "è®¤": 1473,
      "Ġdet": 1474,
      "ons": 1475,
      "èħ": 1476,
      "åĩĨ": 1477,
      "ute": 1478,
      "æĶ¹": 1479,
      "resent": 1480,
      "éĤ£": 1481,
      "Ġinv": 1482,
      "ict": 1483,
      "ç§¯": 1484,
      "çº§": 1485,
      "ä¹¦": 1486,
      "Ġatt": 1487,
      "Ġcor": 1488,
      "Qu": 1489,
      "æĸ½": 1490,
      "åıį": 1491,
      "çłĶ": 1492,
      "ç»Ļ": 1493,
      "å®¹": 1494,
      "èĬĤ": 1495,
      "Ġpeople": 1496,
      "Ġour": 1497,
      "ï¼ļĊ": 1498,
      "24": 1499,
      "cri": 1500,
      "err": 1501,
      "Ġmost": 1502,
      "Th": 1503,
      "ator": 1504,
      "ef": 1505,
      "ĠâĢ¢": 1506,
      "urre": 1507,
      "æł¼": 1508,
      "æģ¯": 1509,
      "ning": 1510,
      "åĨ³": 1511,
      "cul": 1512,
      "ãĥ": 1513,
      "æ³¨": 1514,
      "Ġpublic": 1515,
      "ctions": 1516,
      "Ġoff": 1517,
      "ç¾İ": 1518,
      "cy": 1519,
      "velop": 1520,
      "Ġinst": 1521,
      "ox": 1522,
      "è½¬": 1523,
      "Ġla": 1524,
      "åŃĺ": 1525,
      "è¾ĥ": 1526,
      "ĠIf": 1527,
      "ures": 1528,
      "åĻ¨": 1529,
      "eng": 1530,
      "è¡Ģ": 1531,
      "Ġ:": 1532,
      "ä¹ł": 1533,
      "sq": 1534,
      "åĨµ": 1535,
      "èī²": 1536,
      "åıª": 1537,
      "ments": 1538,
      "tt": 1539,
      "ood": 1540,
      "Ġ\\)": 1541,
      "tern": 1542,
      "ec": 1543,
      "nswer": 1544,
      "000": 1545,
      "æĶ¾": 1546,
      "ower": 1547,
      "Ġvari": 1548,
      "ray": 1549,
      "Ġke": 1550,
      "æ¨": 1551,
      "ä¼ģä¸ļ": 1552,
      "éĢł": 1553,
      "éĽĨ": 1554,
      "å½±": 1555,
      "è±": 1556,
      "è§Ĵ": 1557,
      "Ġinf": 1558,
      "è¿°": 1559,
      "Ġel": 1560,
      "round": 1561,
      "hen": 1562,
      "ew": 1563,
      "å®Į": 1564,
      "Ġpol": 1565,
      "pr": 1566,
      "æĥ³": 1567,
      "çĸĹ": 1568,
      "åį³": 1569,
      "çİ¯": 1570,
      "é©": 1571,
      "Ġinte": 1572,
      "ç½®": 1573,
      "ä¸ĵ": 1574,
      "Ġz": 1575,
      "ger": 1576,
      "ational": 1577,
      "éĹ¨": 1578,
      "åĽĽ": 1579,
      "èĩ³": 1580,
      "åĪĹ": 1581,
      "Ġsm": 1582,
      "Ġ$\\": 1583,
      ")$": 1584,
      "çĬ¶": 1585,
      "å¤ĩ": 1586,
      "Ġgiv": 1587,
      "sqrt": 1588,
      "å¤į": 1589,
      "Ġhel": 1590,
      "è¾¾": 1591,
      "io": 1592,
      "Ġac": 1593,
      "Ġthrough": 1594,
      "ism": 1595,
      "ix": 1596,
      "riv": 1597,
      "ify": 1598,
      "Ġgener": 1599,
      "åķĨ": 1600,
      "æ£Ģ": 1601,
      "Ġdifferent": 1602,
      "Ġbu": 1603,
      "Ġmany": 1604,
      "æŃ¥": 1605,
      "ä¾Ľ": 1606,
      "gin": 1607,
      "æł¹æį®": 1608,
      "Ġcall": 1609,
      "\"Ċ": 1610,
      "Ġ#": 1611,
      "ful": 1612,
      "par": 1613,
      "åĪĽ": 1614,
      "ĠUn": 1615,
      "uring": 1616,
      "è¯Ĩ": 1617,
      "ä¾ĭ": 1618,
      "ç½ĳ": 1619,
      "è®º": 1620,
      "æĬ¥": 1621,
      "Ġself": 1622,
      "å·±": 1623,
      "times": 1624,
      "Answer": 1625,
      "name": 1626,
      "æŀĲ": 1627,
      "ident": 1628,
      "Ġbl": 1629,
      "read": 1630,
      "Ġdist": 1631,
      "åĽłæŃ¤": 1632,
      "\\)": 1633,
      "vent": 1634,
      "éĺ²": 1635,
      "æºĲ": 1636,
      "nce": 1637,
      "'t": 1638,
      "left": 1639,
      "é£Ł": 1640,
      "arch": 1641,
      "æ²¡æľī": 1642,
      "åĽŀ": 1643,
      "Ġsign": 1644,
      "ten": 1645,
      "Ġsur": 1646,
      "Ġtest": 1647,
      "Ġfact": 1648,
      "ç¤¾ä¼ļ": 1649,
      "åĽłä¸º": 1650,
      "Ġcre": 1651,
      "Ġ}ĊĊ": 1652,
      "èį¯": 1653,
      "Ġche": 1654,
      "import": 1655,
      "mer": 1656,
      "the": 1657,
      "ork": 1658,
      "ious": 1659,
      "ĠWe": 1660,
      "Ġimport": 1661,
      "æĶ¯": 1662,
      "æĬ¤": 1663,
      "Ġdoes": 1664,
      "é»": 1665,
      "Ġprocess": 1666,
      "è´¹": 1667,
      "èĩªå·±": 1668,
      "pro": 1669,
      "å¼ķ": 1670,
      "Ġdevelop": 1671,
      "Ġmat": 1672,
      "Ġext": 1673,
      "åĬŁ": 1674,
      "atic": 1675,
      "(x": 1676,
      "Ġchar": 1677,
      "çħ": 1678,
      "let": 1679,
      "Ġterm": 1680,
      "æĸĻ": 1681,
      "ages": 1682,
      "Ð»": 1683,
      "Ġend": 1684,
      "Ġmy": 1685,
      "éĻ¤": 1686,
      "be": 1687,
      "Ġpoint": 1688,
      "è®°": 1689,
      "ç±³": 1690,
      "åĳĬ": 1691,
      "alth": 1692,
      "éĿŀ": 1693,
      "oy": 1694,
      "ines": 1695,
      "ĠPro": 1696,
      "è¯ķ": 1697,
      "åĽ¾": 1698,
      "def": 1699,
      "æĥħåĨµ": 1700,
      "urrent": 1701,
      "uch": 1702,
      "Ġlist": 1703,
      "è¯Ń": 1704,
      "ER": 1705,
      "40": 1706,
      "æ¸ħ": 1707,
      "åŃĹ": 1708,
      "æŁĲ": 1709,
      "è§Ĥ": 1710,
      "uc": 1711,
      "æĹ¶éĹ´": 1712,
      "å®īåħ¨": 1713,
      "æĢģ": 1714,
      "ä¸Ķ": 1715,
      "Ġent": 1716,
      "202": 1717,
      "60": 1718,
      "$\\": 1719,
      "Ġproblem": 1720,
      "åŃ¦çĶŁ": 1721,
      "formation": 1722,
      "æ¶Ī": 1723,
      "cept": 1724,
      "****": 1725,
      "pert": 1726,
      "hed": 1727,
      "ĠĠĠĠĠĠĠĠĠ": 1728,
      "ä¸»è¦ģ": 1729,
      "ä½İ": 1730,
      "Ġref": 1731,
      "èĩ´": 1732,
      "Ġobject": 1733,
      "éªĮ": 1734,
      "¥¿": 1735,
      "åİĭ": 1736,
      "è¾¹": 1737,
      "ature": 1738,
      "èĢģ": 1739,
      "ĠØ": 1740,
      "ç©¶": 1741,
      "è®®": 1742,
      "ever": 1743,
      "æ¨¡": 1744,
      "ression": 1745,
      "Ġmin": 1746,
      "æķħ": 1747,
      "li": 1748,
      "Ġafter": 1749,
      "Ġmake": 1750,
      "ç²¾": 1751,
      "ade": 1752,
      "ren": 1753,
      "ting": 1754,
      "æµĭ": 1755,
      "à¹": 1756,
      "åıĤ": 1757,
      "Ġjust": 1758,
      "Ġsupp": 1759,
      "Ġpat": 1760,
      "erg": 1761,
      "æµİ": 1762,
      "è¥¿": 1763,
      "to": 1764,
      "å¿ħ": 1765,
      "æĺĵ": 1766,
      "))": 1767,
      "ases": 1768,
      "è®©": 1769,
      "æİ¨": 1770,
      "Ġknow": 1771,
      "32": 1772,
      "ins": 1773,
      "Ġcould": 1774,
      "Ġbecause": 1775,
      "æĸŃ": 1776,
      "ars": 1777,
      "åĵį": 1778,
      "æİ§": 1779,
      "ically": 1780,
      "Ġsim": 1781,
      "èģĶ": 1782,
      "Ġfl": 1783,
      "Ġincre": 1784,
      "$ï¼Į": 1785,
      "ä¸ĩ": 1786,
      "Ġpers": 1787,
      "**ĊĊ": 1788,
[...]
